<pad>	0
<s>	0
</s>	0
<unk>	0
s	-3.15042
▁the	-3.20566
▁.	-3.26782
▁,	-3.32171
ed	-3.79637
"	-3.85348
▁a	-3.86262
▁"	-3.86302
▁to	-4.00557
▁of	-4.06843
▁in	-4.14466
▁and	-4.19179
ing	-4.2511
▁s	-4.47009
y	-4.52288
▁said	-4.86911
▁on	-5.07458
▁for	-5.09572
▁that	-5.13336
d	-5.14703
ly	-5.19652
▁is	-5.26722
▁was	-5.30081
▁be	-5.37706
▁	-5.39742
▁with	-5.40171
e	-5.52198
n	-5.55298
the	-5.56939
▁it	-5.61313
▁he	-5.66169
▁at	-5.67754
▁from	-5.71293
▁an	-5.75985
▁by	-5.79713
▁has	-5.82801
▁have	-5.8648
t	-5.88847
▁as	-5.93861
▁his	-5.95327
▁are	-5.95618
▁were	-5.96056
a	-5.98532
▁who	-6.12096
▁not	-6.14162
▁will	-6.16075
▁but	-6.18297
er	-6.19896
▁t	-6.2493
on	-6.26088
▁had	-6.28574
r	-6.28736
▁u	-6.29884
ies	-6.29952
in	-6.31096
▁after	-6.35515
▁people	-6.36669
al	-6.36755
▁been	-6.37705
▁their	-6.38882
▁about	-6.39866
▁cnn	-6.40421
i	-6.423
es	-6.43443
▁her	-6.44746
▁year	-6.49542
▁more	-6.49886
▁they	-6.55303
▁new	-6.55889
st	-6.57158
▁two	-6.57266
▁or	-6.5765
▁she	-6.5835
▁one	-6.59298
▁this	-6.59819
o	-6.60157
▁which	-6.6101
▁president	-6.6265
▁its	-6.63373
▁than	-6.63598
▁up	-6.63709
▁other	-6.67015
lso	-6.67694
ma	-6.68607
▁out	-6.68921
▁would	-6.7091
▁government	-6.73148
▁police	-6.7327
▁al	-6.744
▁i	-6.77255
▁m	-6.78899
▁man	-6.80056
▁day	-6.80589
▁over	-6.82086
man	-6.83393
ce	-6.84547
▁we	-6.85384
▁when	-6.90052
an	-6.90341
▁last	-6.91054
▁first	-6.91186
▁some	-6.92781
▁no	-6.94603
▁say	-6.94667
▁told	-6.97171
▁all	-6.97568
▁into	-6.98274
▁percent	-6.9961
it	-7.01825
▁you	-7.01922
▁can	-7.03213
▁state	-7.04337
▁call	-7.04351
▁time	-7.04362
ish	-7.05202
▁world	-7.05333
l	-7.06759
▁years	-7.07082
▁tuesday	-7.09776
m	-7.10414
▁w	-7.12391
▁could	-7.12409
▁monday	-7.12677
▁go	-7.13235
▁according	-7.13302
▁there	-7.13484
▁b	-7.14334
▁united	-7.17136
▁country	-7.17342
▁again	-7.1762
▁million	-7.18311
▁officials	-7.18959
▁three	-7.19196
▁wednesday	-7.21493
▁month	-7.21938
▁sunday	-7.2327
uch	-7.23679
▁north	-7.23738
p	-7.24335
ion	-7.24876
▁take	-7.2525
▁re	-7.27143
▁them	-7.27834
▁old	-7.28484
▁home	-7.28597
ve	-7.29143
▁before	-7.29267
c	-7.30209
▁near	-7.30257
▁kill	-7.30579
▁south	-7.30793
▁us	-7.31309
▁oba	-7.3156
▁like	-7.32009
▁reported	-7.32432
▁week	-7.32767
cause	-7.32974
▁most	-7.34124
z	-7.34379
▁spokes	-7.34478
▁group	-7.34615
ese	-7.34747
▁what	-7.35477
▁thursday	-7.35781
▁him	-7.36312
▁militar	-7.36992
▁so	-7.37121
▁states	-7.37609
w	-7.37993
▁where	-7.38061
▁high	-7.38791
▁report	-7.38963
▁off	-7.39913
ic	-7.40398
le	-7.40635
he	-7.40719
u	-7.41164
▁clint	-7.42875
h	-7.42918
▁do	-7.43079
hile	-7.43776
▁any	-7.44158
▁may	-7.44894
▁minister	-7.45338
▁city	-7.45382
▁back	-7.46352
en	-7.46591
▁un	-7.4699
▁know	-7.47785
▁official	-7.48522
▁since	-7.48596
▁iraq	-7.49345
▁made	-7.49368
▁china	-7.49508
▁p	-7.49743
ers	-7.52207
▁if	-7.52466
▁national	-7.52893
▁down	-7.53528
▁korea	-7.53678
▁four	-7.55122
▁part	-7.56372
▁party	-7.56991
▁just	-7.57369
▁nation	-7.58238
▁d	-7.58283
▁dur	-7.58317
▁through	-7.58436
▁under	-7.5958
▁long	-7.60161
at	-7.60565
▁securit	-7.61116
▁now	-7.62443
tween	-7.63849
▁former	-7.63976
▁end	-7.64026
hose	-7.64079
but	-7.64174
▁american	-7.64425
▁found	-7.66009
▁election	-7.66831
▁attack	-7.67091
▁expect	-7.67685
▁war	-7.67717
▁did	-7.68393
▁death	-7.68524
▁my	-7.68617
▁house	-7.69138
▁show	-7.69197
▁n	-7.69317
▁statement	-7.69676
▁work	-7.70096
out	-7.70725
▁ver	-7.70726
▁international	-7.70793
▁help	-7.70822
▁news	-7.7136
k	-7.72117
▁including	-7.72732
▁japan	-7.73006
▁leader	-7.73016
round	-7.74129
other	-7.74211
est	-7.74742
▁being	-7.74757
▁our	-7.7481
▁fire	-7.75008
▁l	-7.75176
▁leas	-7.75504
to	-7.75734
▁right	-7.76503
we	-7.76622
able	-7.77158
▁authorit	-7.77228
▁large	-7.77731
▁see	-7.78191
ial	-7.78472
▁five	-7.78556
f	-7.78699
b	-7.78754
▁still	-7.79058
g	-7.79949
▁second	-7.80077
▁make	-7.80192
▁get	-7.8035
▁democratic	-7.80378
ment	-7.80877
▁children	-7.80881
land	-7.81233
▁hour	-7.81401
te	-7.81512
▁close	-7.82572
▁how	-7.82879
one	-7.83222
▁recent	-7.84109
▁come	-7.8412
▁site	-7.84267
▁campaign	-7.85467
▁k	-7.85723
▁court	-7.85775
ity	-7.85846
▁six	-7.8616
um	-7.86187
▁york	-7.86583
th	-7.86612
▁brit	-7.86661
▁place	-7.86928
▁late	-7.87033
▁lead	-7.87457
▁won	-7.87653
▁bush	-7.88939
▁prime	-7.8918
▁way	-7.89999
▁believe	-7.9002
ther	-7.9013
way	-7.90747
▁public	-7.90967
▁nuclear	-7.91469
▁sever	-7.91479
if	-7.91858
▁died	-7.92445
▁charge	-7.92657
▁pakistan	-7.9274
▁took	-7.9281
▁arrest	-7.92952
▁well	-7.93039
▁company	-7.93252
▁point	-7.93267
▁th	-7.9352
re	-7.93656
▁next	-7.93864
▁set	-7.94018
▁play	-7.9437
ary	-7.9485
is	-7.94873
as	-7.94902
ation	-7.94915
▁car	-7.95303
▁korean	-7.95617
▁even	-7.95624
▁c	-7.95842
▁area	-7.95971
▁want	-7.96021
▁vote	-7.96485
▁women	-7.9663
▁air	-7.96907
▁friday	-7.97236
▁return	-7.97857
▁de	-7.97942
▁e	-7.97957
▁run	-7.98483
▁power	-7.98492
▁good	-7.98592
▁number	-7.9881
▁support	-7.99064
▁f	-7.99084
▁market	-7.99448
▁bar	-7.99724
▁press	-7.99752
▁plan	-8.00239
▁case	-8.01396
▁chin	-8.01661
▁agency	-8.01694
gan	-8.019
▁your	-8.02277
ondon	-8.02321
▁use	-8.02401
▁human	-8.02401
▁top	-8.03355
▁talk	-8.03359
▁arm	-8.03957
▁office	-8.04148
▁result	-8.04339
▁men	-8.04596
▁follow	-8.05341
▁injur	-8.0535
▁members	-8.05408
▁left	-8.05669
▁head	-8.05782
▁saturday	-8.06028
ack	-8.06196
▁troop	-8.06379
▁win	-8.0688
▁billion	-8.07441
▁night	-8.07528
▁water	-8.07607
us	-8.07854
▁should	-8.07971
▁iraqi	-8.08402
▁turn	-8.08466
▁program	-8.08645
▁oil	-8.0922
▁put	-8.1007
▁ministr	-8.10203
▁look	-8.10242
or	-8.10436
▁family	-8.10565
▁bas	-8.10879
▁record	-8.10916
▁life	-8.10927
ra	-8.11605
▁order	-8.11684
▁center	-8.12081
▁both	-8.12421
▁countr	-8.12917
▁general	-8.13093
▁capital	-8.13812
▁hit	-8.13995
▁saying	-8.1411
▁later	-8.14476
▁health	-8.14571
▁ago	-8.14685
▁far	-8.14967
▁think	-8.15307
▁few	-8.15366
▁early	-8.15396
▁don	-8.15627
▁same	-8.15735
▁issue	-8.1576
▁forces	-8.16002
▁among	-8.16128
▁every	-8.17402
▁region	-8.17451
▁dead	-8.17926
ar	-8.18203
▁john	-8.18759
▁white	-8.1881
▁sen	-8.1903
▁try	-8.19434
▁count	-8.19463
▁need	-8.19514
▁came	-8.19884
▁french	-8.19921
▁political	-8.20354
▁miles	-8.20889
▁continue	-8.21731
ta	-8.22313
▁face	-8.22528
▁open	-8.22619
▁food	-8.22682
raf	-8.23723
▁protest	-8.23743
▁foreign	-8.23828
▁me	-8.24252
▁major	-8.24323
▁visit	-8.24502
▁per	-8.24559
ton	-8.24581
▁com	-8.24652
▁concern	-8.24711
thing	-8.24816
▁own	-8.24857
▁team	-8.25125
▁force	-8.25197
▁hospital	-8.25737
▁game	-8.25957
▁afghan	-8.26361
el	-8.26494
▁workers	-8.26498
▁release	-8.26674
go	-8.2668
▁march	-8.26803
▁media	-8.27457
▁poll	-8.27594
and	-8.27666
▁real	-8.27738
each	-8.27811
mar	-8.28187
▁school	-8.28424
jing	-8.29007
▁past	-8.29036
▁announc	-8.29399
▁appear	-8.29742
▁increase	-8.29758
▁chief	-8.30212
▁video	-8.30591
▁small	-8.30626
read	-8.31028
▁local	-8.31086
▁main	-8.31279
▁add	-8.31359
co	-8.31419
▁along	-8.31804
▁department	-8.32386
▁suspect	-8.32391
▁web	-8.32943
▁remain	-8.32986
age	-8.33039
▁meeting	-8.33226
▁los	-8.3335
▁washington	-8.33398
ine	-8.33623
▁la	-8.33729
by	-8.3373
▁half	-8.33759
ntil	-8.34056
▁allow	-8.34205
▁mccain	-8.3424
▁great	-8.34626
▁jan	-8.35158
▁fight	-8.35478
▁third	-8.35538
▁claim	-8.35539
▁film	-8.35567
▁woman	-8.35872
▁best	-8.35964
istan	-8.36033
▁soldier	-8.36484
▁earlie	-8.36614
▁gas	-8.36759
▁free	-8.36907
▁does	-8.36911
▁candidate	-8.3692
▁german	-8.36964
▁ask	-8.37177
▁business	-8.37393
▁hand	-8.3776
formation	-8.37956
▁cause	-8.38085
▁leaders	-8.38183
▁law	-8.38247
▁opposition	-8.38344
▁clear	-8.38372
▁prices	-8.38445
▁final	-8.38558
▁start	-8.38746
self	-8.3887
▁change	-8.38905
▁town	-8.38966
▁service	-8.39243
▁england	-8.39276
▁estimate	-8.39299
▁killing	-8.39703
▁student	-8.39744
▁bank	-8.39807
▁side	-8.40259
cy	-8.40539
▁en	-8.40576
▁associat	-8.41112
▁bomb	-8.41438
▁led	-8.41458
▁internet	-8.41671
▁border	-8.41672
▁university	-8.41734
▁whe	-8.41952
▁name	-8.42196
▁young	-8.42244
▁releas	-8.42281
▁reach	-8.42681
▁musha	-8.43061
son	-8.43106
most	-8.44248
▁move	-8.44401
▁sign	-8.44491
▁decision	-8.44635
▁system	-8.4486
day	-8.44949
▁hope	-8.44963
cross	-8.44965
ber	-8.45003
ist	-8.45097
▁source	-8.45138
▁street	-8.45146
▁must	-8.45182
▁post	-8.45213
▁deal	-8.45312
▁economic	-8.45357
▁thousand	-8.45677
▁hel	-8.45899
▁offer	-8.45939
▁primar	-8.45978
for	-8.46044
cnn	-8.46188
▁times	-8.46552
▁southern	-8.46694
▁northern	-8.46697
▁iran	-8.46704
▁ga	-8.47061
▁operation	-8.47241
▁european	-8.47258
▁person	-8.47397
ry	-8.47415
▁attacks	-8.47457
▁province	-8.47573
▁rule	-8.47998
▁consider	-8.48031
la	-8.48121
▁become	-8.48207
▁morning	-8.48226
ard	-8.48232
▁comment	-8.48258
▁control	-8.48303
▁secretar	-8.48352
▁race	-8.48733
▁ve	-8.49045
▁cit	-8.49284
ur	-8.49318
▁outside	-8.49356
▁union	-8.49544
▁keep	-8.49859
▁cha	-8.49936
▁israel	-8.50044
▁mean	-8.50052
▁travel	-8.50092
▁demand	-8.50307
▁space	-8.50432
▁violen	-8.50587
▁france	-8.51303
▁co	-8.5135
▁black	-8.51923
▁station	-8.51977
ous	-8.52093
▁these	-8.521
▁bei	-8.52592
hutto	-8.52938
▁condition	-8.52999
▁give	-8.53024
▁fe	-8.53272
▁hard	-8.53377
uar	-8.53508
▁palestinian	-8.53558
▁line	-8.53652
▁confirm	-8.53792
▁emergency	-8.54142
▁israeli	-8.54416
▁cut	-8.55006
ive	-8.55132
▁militant	-8.55205
▁mak	-8.55221
▁big	-8.55614
▁seven	-8.55646
▁building	-8.55688
▁test	-8.5575
▁child	-8.55753
▁target	-8.55757
▁eight	-8.55801
ism	-8.55811
▁rebel	-8.55833
▁weeks	-8.55851
▁sea	-8.56132
▁park	-8.56353
head	-8.56437
▁strong	-8.56896
ng	-8.56934
▁plann	-8.57088
▁hold	-8.57112
they	-8.57116
▁immediate	-8.57459
▁train	-8.57593
be	-8.57701
▁airport	-8.5803
▁delegates	-8.58234
▁attempt	-8.58598
▁econom	-8.58713
▁tak	-8.58782
▁o	-8.58853
▁include	-8.59154
▁companies	-8.59189
▁study	-8.59226
▁baghdad	-8.59255
▁russian	-8.59505
▁grow	-8.59742
▁islam	-8.5988
▁cost	-8.59945
▁pro	-8.59961
▁minutes	-8.60649
▁director	-8.60962
▁west	-8.61166
▁r	-8.6137
▁find	-8.61375
▁island	-8.61503
▁qa	-8.61569
▁total	-8.61657
▁read	-8.61949
▁red	-8.62047
▁hotel	-8.62123
▁storm	-8.62137
na	-8.6226
▁goal	-8.62284
▁wounded	-8.62501
▁ta	-8.62565
▁disease	-8.62716
▁conference	-8.62727
▁coast	-8.62732
ro	-8.62825
▁live	-8.63117
▁develop	-8.63148
▁california	-8.63326
▁level	-8.63327
▁walk	-8.63344
▁never	-8.63352
▁full	-8.63384
ne	-8.63823
▁incident	-8.63925
▁newspaper	-8.63926
▁television	-8.63943
▁carry	-8.63971
▁wide	-8.6476
no	-8.65083
▁hillary	-8.6518
▁base	-8.65369
▁investigation	-8.65805
▁defense	-8.65808
ship	-8.65843
▁supporter	-8.65886
she	-8.65888
▁ship	-8.6618
▁age	-8.66336
▁central	-8.66387
▁search	-8.66387
▁money	-8.6641
▁less	-8.66716
▁commission	-8.67022
▁watch	-8.67037
▁strike	-8.67634
▁little	-8.6764
▁might	-8.6764
▁shot	-8.6773
▁se	-8.67862
▁agree	-8.68353
ia	-8.68585
▁st	-8.68622
ri	-8.69037
▁accus	-8.69141
se	-8.69146
▁too	-8.69309
this	-8.69322
▁working	-8.69554
▁global	-8.69555
▁short	-8.69569
▁star	-8.696
▁action	-8.69646
▁mid	-8.69877
▁weekend	-8.70198
▁research	-8.70198
▁britain	-8.70252
▁hundred	-8.70275
et	-8.70645
▁suicide	-8.70856
▁stop	-8.70952
woman	-8.71023
ba	-8.71104
though	-8.71127
▁reporter	-8.713
ful	-8.71336
▁summer	-8.715
▁previous	-8.71523
▁polic	-8.71618
▁body	-8.71686
▁fall	-8.71765
mber	-8.7206
ance	-8.72123
▁dozen	-8.72181
▁scientist	-8.722
after	-8.72347
▁heart	-8.72412
▁launch	-8.72684
ough	-8.72769
▁serious	-8.7282
▁animal	-8.72834
▁republican	-8.72864
▁victory	-8.72992
side	-8.73023
▁east	-8.73039
ian	-8.73051
ch	-8.73077
▁couple	-8.73512
▁bill	-8.73546
am	-8.73569
ten	-8.73759
▁weapons	-8.73793
▁rate	-8.73904
less	-8.73907
▁season	-8.74193
▁december	-8.74833
▁key	-8.75072
▁russia	-8.75171
▁toward	-8.75465
▁g	-8.75572
▁terrorist	-8.75624
▁ho	-8.75706
▁alleged	-8.75723
▁plane	-8.75805
ant	-8.76003
▁ban	-8.76092
ong	-8.76094
▁share	-8.76415
ble	-8.7649
▁mother	-8.76589
▁olympic	-8.76732
▁organization	-8.76902
▁committee	-8.76904
▁break	-8.76933
▁hav	-8.77211
▁tour	-8.77269
▁judge	-8.77341
▁wif	-8.77389
▁interview	-8.77399
▁peace	-8.77426
▁sex	-8.77449
▁ap	-8.77471
▁member	-8.77508
v	-8.77518
▁august	-8.77582
▁ever	-8.77593
ness	-8.77622
▁voter	-8.77634
▁involv	-8.77869
▁question	-8.78176
▁pay	-8.78235
▁light	-8.78257
▁western	-8.78454
▁parliament	-8.78543
there	-8.78918
▁decade	-8.78988
when	-8.79232
▁anti	-8.79286
▁am	-8.79455
▁cross	-8.7964
▁movie	-8.80399
▁vehicle	-8.80409
▁room	-8.80512
den	-8.80677
▁happen	-8.81119
▁september	-8.81129
▁girl	-8.81147
▁resident	-8.81148
▁victims	-8.81288
bru	-8.81522
▁term	-8.81901
▁cover	-8.82235
▁ex	-8.82422
▁suggest	-8.82453
▁foot	-8.82603
▁current	-8.82617
▁father	-8.82649
hind	-8.833
▁turkey	-8.83342
▁possible	-8.83432
abe	-8.83539
oul	-8.83697
▁america	-8.83704
that	-8.83716
▁started	-8.8388
▁nomination	-8.84074
▁blood	-8.84086
▁sell	-8.84162
▁problem	-8.84233
▁lot	-8.84397
da	-8.84777
▁areas	-8.84856
▁ki	-8.849
▁federal	-8.84908
ally	-8.84956
▁india	-8.85183
bi	-8.85351
▁san	-8.85398
▁pakistani	-8.85426
▁suffer	-8.85559
een	-8.85568
▁church	-8.8557
▁angel	-8.85578
▁meet	-8.8567
▁view	-8.85686
▁flight	-8.85688
▁ground	-8.85738
▁caus	-8.85851
▁fuel	-8.86318
▁pass	-8.86347
▁efforts	-8.86497
new	-8.86582
▁figure	-8.86873
▁seat	-8.86915
▁risk	-8.87083
▁attend	-8.87086
▁paris	-8.87098
▁threaten	-8.87117
▁got	-8.87178
▁better	-8.87256
▁nove	-8.87508
▁h	-8.87536
▁project	-8.87626
▁event	-8.87756
▁medical	-8.87851
▁civilian	-8.87858
▁stock	-8.87913
▁june	-8.88087
▁aid	-8.88088
ha	-8.88284
▁bring	-8.8832
▁prison	-8.88338
▁receiv	-8.88407
▁cris	-8.88613
more	-8.88627
▁gold	-8.88705
▁ra	-8.89274
▁sent	-8.89566
▁ben	-8.89784
▁damage	-8.90079
▁missing	-8.90088
▁europe	-8.90105
▁article	-8.90192
▁democrac	-8.90192
▁leave	-8.90229
up	-8.90248
▁bus	-8.90487
men	-8.90598
▁process	-8.90841
▁industry	-8.90985
▁popular	-8.90988
▁chance	-8.90989
▁different	-8.90996
▁road	-8.91004
▁front	-8.91018
▁further	-8.91021
▁interest	-8.91026
ought	-8.9105
ham	-8.91087
▁protester	-8.91267
▁inside	-8.91511
▁direct	-8.91535
▁liv	-8.91575
▁protect	-8.9171
▁form	-8.91829
▁act	-8.92078
▁due	-8.92226
▁tried	-8.92245
▁cell	-8.926
▁league	-8.92614
▁agreement	-8.92644
▁price	-8.93271
▁energ	-8.93405
▁texas	-8.93419
▁florida	-8.93422
ize	-8.93521
▁seek	-8.93682
▁shar	-8.93746
▁warn	-8.93869
▁trip	-8.93876
▁here	-8.94003
▁computer	-8.94034
▁friend	-8.94046
▁le	-8.94136
▁situation	-8.94224
▁muslim	-8.94224
▁dollar	-8.94228
▁village	-8.94332
▁nine	-8.94432
ung	-8.94572
ether	-8.94604
ty	-8.94604
li	-8.94936
▁crime	-8.95063
▁daughter	-8.95077
▁stay	-8.95088
▁turk	-8.95097
▁apri	-8.95178
▁let	-8.95543
▁land	-8.95559
▁congress	-8.95894
ent	-8.96489
▁ceremon	-8.96725
▁council	-8.96725
▁fell	-8.96762
bo	-8.97467
ter	-8.97517
▁crash	-8.97575
▁octo	-8.97583
mo	-8.97637
▁lower	-8.97779
▁vi	-8.97939
wide	-8.97966
▁prevent	-8.98427
▁destroy	-8.98427
▁senior	-8.98427
▁administration	-8.98441
▁parent	-8.98458
▁list	-8.98539
▁future	-8.99263
▁embass	-8.99289
▁ruling	-8.99294
▁image	-8.99299
▁population	-8.99299
▁lawyer	-8.99301
▁financial	-8.99302
▁important	-8.99327
▁mission	-8.99337
▁bigge	-8.9957
▁battle	-8.99798
▁problems	-8.99955
▁broke	-8.9996
▁mi	-9.00134
▁barrel	-9.00171
▁chair	-9.00191
▁soon	-9.00354
came	-9.00564
im	-9.00786
▁con	-9.00893
▁boy	-9.01019
▁discover	-9.01056
▁technology	-9.01059
▁crew	-9.01069
▁special	-9.01143
▁job	-9.01149
▁provide	-9.01263
▁arriv	-9.01337
▁product	-9.01429
▁mov	-9.01486
▁bad	-9.01659
mid	-9.01662
▁speak	-9.01786
▁tibet	-9.01818
▁serie	-9.0184
▁gen	-9.01846
▁husband	-9.0192
▁scene	-9.01924
▁title	-9.01925
▁blast	-9.01974
▁brown	-9.01999
▁inter	-9.02102
▁tv	-9.02242
▁cat	-9.02336
ves	-9.02491
▁ka	-9.02723
▁coalition	-9.02813
▁river	-9.02832
▁senator	-9.02833
▁award	-9.02874
▁davi	-9.02884
▁wanted	-9.03067
▁officers	-9.03405
▁na	-9.03424
lo	-9.03508
de	-9.03617
▁treat	-9.03701
▁quick	-9.03717
▁gun	-9.03757
▁cup	-9.03775
▁rose	-9.03901
▁seem	-9.04009
with	-9.04157
▁given	-9.04458
▁justice	-9.04627
▁rival	-9.04652
▁position	-9.04662
▁pick	-9.04704
▁rais	-9.0478
▁ye	-9.05023
▁rock	-9.05208
▁easter	-9.05406
▁match	-9.05482
terior	-9.0554
▁crowd	-9.05541
▁evidence	-9.05544
▁j	-9.05603
▁tell	-9.05716
▁schedul	-9.0577
▁send	-9.05836
▁runn	-9.06038
▁australia	-9.06108
▁expert	-9.06491
▁saudi	-9.06491
▁low	-9.06661
ie	-9.06876
down	-9.0692
x	-9.07012
▁wall	-9.07036
ka	-9.07102
▁officer	-9.07355
▁exchange	-9.07363
▁airline	-9.07423
▁role	-9.0745
▁paul	-9.07456
▁gaza	-9.07465
il	-9.07509
ate	-9.07895
▁kim	-9.08104
▁conduct	-9.0831
▁appeal	-9.08345
▁private	-9.08354
▁similar	-9.08356
▁toll	-9.08356
▁sarkozy	-9.08411
ever	-9.08439
▁despi	-9.08601
her	-9.08628
▁plant	-9.08698
ni	-9.08716
▁drug	-9.08762
▁minute	-9.08815
hua	-9.09116
▁express	-9.09202
▁network	-9.09299
▁begin	-9.09311
▁pressure	-9.09325
▁pull	-9.09373
▁production	-9.09385
▁board	-9.09646
▁accident	-9.09649
police	-9.09782
ney	-9.09975
some	-9.10235
▁feel	-9.10236
▁refus	-9.1026
▁flood	-9.10279
▁loss	-9.10476
▁met	-9.10491
▁draw	-9.1074
▁player	-9.10755
▁complete	-9.10854
▁thai	-9.11338
▁gain	-9.11592
▁though	-9.11725
oft	-9.11989
▁needed	-9.12014
▁declar	-9.12017
▁approv	-9.12135
▁transport	-9.1221
▁tog	-9.12269
▁kong	-9.12282
ez	-9.12386
▁fee	-9.12499
▁trade	-9.125
id	-9.12749
rice	-9.129
went	-9.13001
▁account	-9.132
▁executive	-9.13206
▁address	-9.13217
▁message	-9.1326
▁development	-9.13268
▁matter	-9.13278
▁king	-9.13313
▁fund	-9.13331
yet	-9.13469
▁beat	-9.13544
my	-9.13797
▁die	-9.13964
▁mark	-9.13971
▁natural	-9.142
▁july	-9.1426
▁host	-9.14774
▁often	-9.14858
sen	-9.14909
▁prince	-9.1496
▁effort	-9.14967
ak	-9.14994
▁ll	-9.15024
▁spoke	-9.15027
▁round	-9.15141
▁son	-9.15148
▁crack	-9.1521
▁square	-9.15215
▁link	-9.15228
ck	-9.15237
▁identified	-9.15462
eda	-9.15642
▁pop	-9.15718
▁describ	-9.16057
▁reason	-9.16089
▁democrat	-9.1609
▁request	-9.1623
▁growth	-9.16298
▁rise	-9.16517
▁measure	-9.16607
▁care	-9.16713
pent	-9.17
▁mo	-9.17107
▁sales	-9.17232
▁staff	-9.17266
▁heavy	-9.17294
▁saw	-9.17324
coming	-9.17329
▁robert	-9.17346
▁bo	-9.17498
ell	-9.17773
▁colombia	-9.17949
di	-9.18041
▁step	-9.18046
ki	-9.18101
aba	-9.18205
▁neighbor	-9.183
▁ohio	-9.18304
▁fear	-9.18314
▁earth	-9.18323
▁histor	-9.18367
▁italy	-9.18422
▁community	-9.18565
▁buy	-9.18632
▁visitor	-9.18752
▁opening	-9.18893
truck	-9.18924
ways	-9.19298
▁phone	-9.19315
▁speech	-9.19356
▁survey	-9.19356
▁communist	-9.19358
off	-9.19374
▁analyst	-9.19443
▁movement	-9.19448
▁ice	-9.19654
▁rest	-9.19781
▁truck	-9.19843
▁carri	-9.1991
▁opened	-9.19975
▁trad	-9.20059
▁attorney	-9.2042
▁difficult	-9.2042
▁district	-9.2042
▁poor	-9.20443
▁letter	-9.20444
▁journalist	-9.20448
▁kind	-9.20449
▁getting	-9.20489
ner	-9.20557
▁burn	-9.20778
▁online	-9.20845
kyo	-9.2092
however	-9.21018
ol	-9.21183
▁join	-9.21286
▁drive	-9.21303
▁xin	-9.21476
▁focus	-9.21495
▁weather	-9.21496
▁moment	-9.21541
ud	-9.21612
▁book	-9.21663
▁green	-9.21733
▁asia	-9.21794
▁thought	-9.21847
▁things	-9.22064
▁idea	-9.22498
▁effect	-9.22562
▁murder	-9.22584
▁pound	-9.22588
odies	-9.22625
nt	-9.22826
ern	-9.22856
▁jon	-9.22867
▁pe	-9.23243
▁africa	-9.23294
▁contain	-9.2335
▁fan	-9.23409
▁dar	-9.23546
pp	-9.23624
▁nominee	-9.23681
▁satellite	-9.23681
▁availab	-9.23681
▁missile	-9.23681
▁afternoon	-9.23681
▁occurr	-9.23721
▁treatment	-9.23731
▁however	-9.24219
▁fact	-9.24238
▁urg	-9.24255
according	-9.24315
▁dog	-9.24383
▁enter	-9.24486
▁detain	-9.24778
▁kilometer	-9.24792
▁intelligen	-9.24792
▁middle	-9.24792
ani	-9.24862
▁manager	-9.24961
▁guard	-9.25021
▁indian	-9.25126
▁lives	-9.2522
▁tree	-9.25286
▁bid	-9.25418
▁el	-9.25474
▁ran	-9.25529
▁rescue	-9.25589
liban	-9.25634
▁driver	-9.25648
▁average	-9.25916
▁lawmaker	-9.2592
▁centur	-9.25933
▁tourist	-9.25951
▁services	-9.25973
▁included	-9.26005
▁consumer	-9.26124
▁marine	-9.26598
me	-9.26599
▁personal	-9.26697
▁date	-9.26807
▁elect	-9.26842
ling	-9.26902
all	-9.2691
▁majorit	-9.27011
▁carolina	-9.27052
▁document	-9.27052
▁credit	-9.27052
▁apparent	-9.27053
▁sexual	-9.27059
▁aircraft	-9.27062
▁jail	-9.27064
▁non	-9.2713
▁stand	-9.27166
▁present	-9.27192
▁african	-9.27469
ick	-9.27608
▁pa	-9.27655
▁bin	-9.27711
▁create	-9.27883
▁push	-9.27916
▁love	-9.28075
▁delay	-9.28208
▁safety	-9.28218
ho	-9.28236
▁camp	-9.2824
▁certain	-9.28243
▁lift	-9.28264
▁safe	-9.28339
▁investigator	-9.28386
▁threat	-9.2843
▁environmental	-9.28484
ah	-9.28772
▁bomber	-9.28832
wood	-9.2887
▁fail	-9.29088
▁scor	-9.2915
▁music	-9.29174
▁why	-9.2937
▁researcher	-9.29431
▁shows	-9.29567
ana	-9.2965
▁size	-9.29855
ap	-9.30055
▁christ	-9.3018
▁kid	-9.3035
▁civil	-9.30532
▁explosion	-9.3054
▁pennsylvania	-9.30544
▁drink	-9.30546
▁speed	-9.30562
▁southeast	-9.30564
▁contact	-9.30566
▁model	-9.3061
▁rich	-9.30753
▁critic	-9.3088
▁details	-9.30948
▁harr	-9.30966
pain	-9.31057
ad	-9.31122
▁rain	-9.31282
▁kurd	-9.31735
▁avoid	-9.31757
▁story	-9.31757
▁patient	-9.31773
▁rare	-9.31791
▁deliver	-9.31834
der	-9.31964
▁independent	-9.31975
▁abo	-9.31975
un	-9.32043
mi	-9.32073
▁mass	-9.32289
▁publish	-9.32445
▁wear	-9.32489
his	-9.32705
▁jo	-9.32728
▁discuss	-9.32764
▁deep	-9.32885
▁design	-9.32889
▁van	-9.32923
▁course	-9.32974
▁normal	-9.32984
▁spear	-9.33006
ler	-9.331
▁association	-9.33121
▁single	-9.33167
▁olympics	-9.33209
nato	-9.33281
ley	-9.33365
▁slow	-9.33366
▁wor	-9.33453
▁hu	-9.33674
▁employees	-9.33675
▁contract	-9.33996
▁warm	-9.34021
▁limit	-9.34155
▁common	-9.34171
▁trial	-9.34227
oba	-9.34353
za	-9.3448
▁mug	-9.34489
▁deni	-9.34512
▁sold	-9.34567
▁critical	-9.34695
▁remark	-9.34783
▁doctors	-9.34846
▁arab	-9.34954
▁attention	-9.3539
▁suspend	-9.3539
▁reject	-9.35391
▁rising	-9.3542
▁lo	-9.35421
▁initial	-9.35442
▁aim	-9.35716
▁serve	-9.35986
▁bear	-9.36207
▁creat	-9.36271
▁warning	-9.36357
▁relat	-9.36408
ability	-9.36477
▁ne	-9.36577
▁famili	-9.36622
▁earthquake	-9.3664
▁summit	-9.3664
▁labor	-9.36648
▁club	-9.36657
▁finish	-9.36669
▁brother	-9.36674
▁prosecutor	-9.36702
▁sentence	-9.36886
▁factor	-9.36908
▁customer	-9.37046
▁continu	-9.37081
▁australian	-9.37166
▁gather	-9.37832
▁museum	-9.37906
▁screen	-9.37906
▁royal	-9.37908
▁iranian	-9.37945
▁camera	-9.38007
ga	-9.38497
▁passengers	-9.38554
night	-9.3867
▁stage	-9.38696
▁forest	-9.38739
▁fill	-9.3878
▁fast	-9.38784
▁ro	-9.39009
▁success	-9.39112
▁leav	-9.39128
▁helicopter	-9.39188
▁relationship	-9.39188
▁response	-9.39188
▁period	-9.39188
▁quarter	-9.39196
▁check	-9.39223
▁block	-9.39235
▁paper	-9.39309
▁tibetan	-9.39337
▁commander	-9.3944
▁jun	-9.39474
▁moon	-9.39571
▁legal	-9.39636
▁ball	-9.39704
nois	-9.39913
sh	-9.40152
▁provid	-9.40235
▁dropp	-9.40385
cially	-9.40422
▁female	-9.40487
▁index	-9.40493
▁crude	-9.40505
ca	-9.40574
▁compar	-9.40598
▁stopp	-9.40653
▁insist	-9.40662
▁lack	-9.40691
our	-9.40899
▁lee	-9.40981
▁separate	-9.40982
▁thing	-9.41092
j	-9.41107
▁decided	-9.41251
▁ko	-9.41408
▁canno	-9.41653
▁convict	-9.41673
▁illegal	-9.41802
▁espe	-9.41815
▁virginia	-9.41817
▁george	-9.41831
▁wait	-9.41849
▁cap	-9.41888
▁grand	-9.41897
▁sun	-9.41981
rought	-9.42052
over	-9.42358
about	-9.42702
▁dail	-9.42795
▁independen	-9.42863
▁wen	-9.42965
▁exile	-9.43151
▁hostage	-9.43168
▁rally	-9.43172
▁torch	-9.43181
▁boat	-9.43197
▁spend	-9.43235
▁mail	-9.43254
▁social	-9.43415
tic	-9.43439
▁born	-9.43443
last	-9.43472
▁spread	-9.43487
▁di	-9.43793
han	-9.43863
▁sure	-9.43976
▁whi	-9.44026
▁snow	-9.44194
▁themsel	-9.44274
▁access	-9.44301
▁cent	-9.44353
▁asian	-9.44373
▁approach	-9.44487
▁custod	-9.44487
▁nepal	-9.44487
▁marriage	-9.44503
▁color	-9.44521
yang	-9.44582
▁li	-9.44739
tan	-9.44866
▁sp	-9.44885
▁wound	-9.44978
▁nav	-9.45096
▁super	-9.45402
ig	-9.45409
ami	-9.45522
vi	-9.45681
▁quake	-9.45859
▁electric	-9.45861
▁relations	-9.45868
▁deput	-9.45872
▁zone	-9.4588
▁micros	-9.4596
▁winn	-9.45964
board	-9.46018
▁dis	-9.46102
▁friends	-9.46187
▁store	-9.4619
▁class	-9.46297
▁shooting	-9.46372
▁planet	-9.46506
so	-9.46617
▁fil	-9.46636
ab	-9.46774
▁fa	-9.4679
▁gu	-9.46811
▁mountain	-9.47038
em	-9.47051
▁pre	-9.47133
▁nam	-9.47236
▁condemn	-9.47246
▁monitor	-9.47246
ov	-9.47246
▁respond	-9.47283
▁blue	-9.47319
▁nor	-9.47418
▁page	-9.47433
ions	-9.47458
▁eat	-9.47538
do	-9.47703
▁fly	-9.47841
▁port	-9.48067
▁done	-9.48076
▁maintain	-9.48654
▁facilit	-9.48702
▁michael	-9.48712
▁terror	-9.49061
▁driv	-9.49261
▁mar	-9.49331
earlie	-9.49605
dur	-9.49639
▁ba	-9.49691
▁bur	-9.49765
▁po	-9.49786
hi	-9.4981
rt	-9.49863
▁ha	-9.49925
ul	-9.49986
▁investigat	-9.50062
▁italian	-9.50084
▁surgery	-9.50114
▁somali	-9.50128
▁everyone	-9.50275
bc	-9.50283
▁original	-9.50291
▁produce	-9.50531
▁colombian	-9.5062
▁cars	-9.50678
▁partie	-9.50747
▁fine	-9.50788
▁mile	-9.50823
▁sa	-9.50837
even	-9.51005
▁eu	-9.51093
▁che	-9.51305
▁assault	-9.51532
▁criminal	-9.51532
▁particular	-9.51532
▁defeat	-9.51532
▁shiite	-9.51532
▁impact	-9.51533
▁brief	-9.51534
▁prize	-9.51544
▁kosov	-9.51557
▁raid	-9.51571
▁education	-9.51598
▁jet	-9.51647
▁save	-9.51703
ence	-9.51827
▁sale	-9.51893
▁illi	-9.519
▁joint	-9.51902
▁nothing	-9.5191
▁vice	-9.52106
▁vot	-9.52214
ge	-9.52218
▁sub	-9.5231
▁unit	-9.52352
gen	-9.52367
town	-9.52455
▁buil	-9.5246
▁remains	-9.52483
ican	-9.52485
▁farmer	-9.52682
▁secret	-9.527
▁hop	-9.52702
▁challenge	-9.52849
▁citizens	-9.5293
berg	-9.53004
▁actual	-9.53012
▁route	-9.53029
▁investor	-9.5305
azir	-9.53191
▁sharp	-9.53216
ac	-9.53268
▁su	-9.53335
yong	-9.53884
▁traffic	-9.54335
now	-9.54427
ko	-9.54442
▁electronic	-9.54495
▁value	-9.54496
▁represent	-9.5451
▁track	-9.54514
▁significant	-9.54533
▁actor	-9.54676
po	-9.5476
▁recover	-9.549
▁giv	-9.54966
▁et	-9.54982
▁premier	-9.55115
▁holding	-9.55297
▁debate	-9.55488
▁raise	-9.55851
▁republic	-9.55915
aught	-9.55968
▁engl	-9.55984
▁responsibilit	-9.5601
▁activist	-9.56012
▁beginning	-9.56019
▁resign	-9.56025
▁societ	-9.56029
▁establish	-9.56036
▁northeast	-9.56044
▁giant	-9.56056
▁data	-9.56161
▁worth	-9.56179
▁range	-9.56266
▁rocket	-9.56277
▁understand	-9.56306
▁farm	-9.56347
time	-9.5661
▁accept	-9.56821
▁fl	-9.57011
▁evening	-9.57058
stead	-9.57061
▁kenya	-9.5716
▁produc	-9.57268
ium	-9.57454
▁peter	-9.57497
▁leg	-9.57508
▁holiday	-9.57549
▁adult	-9.57549
▁honor	-9.57549
▁dispute	-9.57553
▁committ	-9.57629
▁negotiation	-9.57631
ger	-9.5764
▁span	-9.57646
▁abuse	-9.57711
ier	-9.57727
▁additional	-9.57755
▁shop	-9.57809
▁sound	-9.57817
▁experience	-9.57863
▁receive	-9.57981
ated	-9.58287
▁annual	-9.58532
▁parliamentar	-9.58545
ting	-9.58704
▁indonesia	-9.58758
▁jobs	-9.58934
per	-9.58992
▁ambassador	-9.59111
▁institute	-9.59111
▁prompt	-9.59111
▁material	-9.59112
▁necessar	-9.59138
▁option	-9.59158
▁bombing	-9.59253
▁riot	-9.59254
▁intend	-9.59258
▁cast	-9.59341
▁fish	-9.59421
bei	-9.59422
▁hands	-9.59501
▁arabia	-9.59675
ph	-9.59716
▁winner	-9.59843
two	-9.60334
▁hearing	-9.60451
▁witness	-9.60519
▁operat	-9.60602
▁opportunit	-9.60698
▁supreme	-9.60698
▁jump	-9.60698
▁potential	-9.60699
▁boost	-9.60699
▁increasing	-9.6071
▁performance	-9.60711
▁quot	-9.60716
▁fair	-9.60727
▁radio	-9.60735
▁usual	-9.60756
▁cancer	-9.60762
▁activities	-9.60813
▁pain	-9.6084
▁traditional	-9.61059
chi	-9.61066
▁field	-9.61072
▁od	-9.61138
▁pai	-9.61148
ory	-9.61164
▁perve	-9.61202
▁beach	-9.6128
▁tax	-9.61323
har	-9.61694
▁broadcast	-9.61763
▁georgia	-9.61908
of	-9.61914
▁venezuela	-9.61922
you	-9.61993
▁controll	-9.62028
▁addition	-9.62112
▁territor	-9.62121
▁euro	-9.62238
win	-9.62267
▁software	-9.62311
▁solution	-9.62311
▁difference	-9.62312
nevada	-9.62312
▁relay	-9.62314
▁cancel	-9.62317
▁device	-9.62321
▁peaceful	-9.6235
▁brain	-9.62352
▁singapore	-9.62354
▁double	-9.62402
▁ma	-9.62591
▁affected	-9.62658
▁dr	-9.62821
▁yang	-9.629
ari	-9.62922
▁mind	-9.62966
▁del	-9.62972
▁finding	-9.63009
▁highway	-9.63053
tra	-9.6313
▁build	-9.63182
▁mil	-9.63501
▁supplie	-9.63664
tor	-9.63671
▁disaster	-9.63951
▁surprise	-9.63951
▁firm	-9.63951
▁sanction	-9.63952
▁window	-9.63953
▁communication	-9.63978
▁massive	-9.63978
▁francis	-9.6398
▁announcement	-9.63991
▁hurt	-9.6403
▁mosco	-9.6406
▁engineer	-9.64314
line	-9.64338
▁propos	-9.64508
▁tru	-9.64606
rdon	-9.6465
clinto	-9.64676
▁seiz	-9.64823
▁sh	-9.65267
▁flights	-9.65396
▁locat	-9.65482
▁bit	-9.6555
▁assembl	-9.65617
▁ocean	-9.65618
▁dangerous	-9.65629
▁twic	-9.65643
▁punish	-9.6565
▁probabl	-9.65661
▁bridge	-9.65677
▁broad	-9.65766
▁reform	-9.65827
▁reduce	-9.65956
kk	-9.65999
▁writ	-9.66008
▁yu	-9.66222
▁agent	-9.66245
▁demonstrations	-9.66251
mean	-9.66572
ors	-9.66585
▁clean	-9.66765
▁art	-9.66815
body	-9.66847
▁spot	-9.66902
▁card	-9.67058
rote	-9.6725
rai	-9.67271
▁drop	-9.67297
▁college	-9.67312
▁tournament	-9.67312
▁brazil	-9.67317
▁superdelegate	-9.67333
▁alert	-9.67334
▁leban	-9.67374
▁code	-9.67394
▁showing	-9.6746
▁protection	-9.67472
▁below	-9.67555
▁tape	-9.67651
▁repeated	-9.67688
▁forc	-9.67701
▁hous	-9.67729
▁adding	-9.678
pol	-9.67833
▁door	-9.68003
▁miss	-9.68024
ina	-9.68032
ado	-9.68074
▁contest	-9.68078
▁doctor	-9.68177
▁hama	-9.68195
▁jer	-9.68258
▁huge	-9.68351
▁bird	-9.68409
enate	-9.68417
let	-9.68431
ja	-9.68476
washington	-9.68559
authorit	-9.68559
▁male	-9.68981
▁example	-9.69036
▁frequent	-9.69036
▁progress	-9.69036
▁palace	-9.69036
▁iowa	-9.69038
▁reveal	-9.69038
▁admitted	-9.69039
▁review	-9.69042
▁neighborhood	-9.69042
▁allegation	-9.69045
▁words	-9.69048
baki	-9.69067
▁standard	-9.69068
▁taiwan	-9.69091
where	-9.69183
▁wing	-9.69357
▁holly	-9.69375
▁severe	-9.69386
▁ru	-9.69417
▁terroris	-9.69474
ze	-9.69567
▁forward	-9.69584
rs	-9.69604
also	-9.69626
▁ja	-9.70055
▁ii	-9.70149
▁determine	-9.70184
▁tie	-9.70437
▁barr	-9.70528
▁affair	-9.70791
▁conflict	-9.70791
▁boycott	-9.70792
▁cruise	-9.70794
▁felt	-9.70872
▁adviser	-9.70873
▁eye	-9.70947
▁changes	-9.71237
▁syria	-9.71247
▁surrounding	-9.71373
▁chang	-9.71865
▁export	-9.71882
▁writer	-9.71959
lew	-9.72077
ru	-9.7226
▁kar	-9.72278
kept	-9.72392
▁birth	-9.72555
▁behavior	-9.72576
▁michigan	-9.72576
▁soviet	-9.72576
▁professor	-9.72579
▁agenci	-9.7258
▁sudan	-9.72581
▁dress	-9.72586
▁monk	-9.7259
▁trail	-9.72591
▁choice	-9.72595
▁survivor	-9.72694
diana	-9.72782
▁exit	-9.728
▁trouble	-9.72855
▁fighter	-9.72912
▁computers	-9.73041
▁champions	-9.73094
▁criticiz	-9.73134
shi	-9.73155
▁da	-9.73161
▁touch	-9.73208
▁fit	-9.73274
▁slight	-9.73432
▁hear	-9.73507
▁training	-9.73517
▁blam	-9.7367
nel	-9.7399
▁ky	-9.74029
▁stone	-9.74073
▁seed	-9.7417
▁climate	-9.74395
▁supply	-9.74395
▁telephone	-9.74395
▁responsibl	-9.74395
▁session	-9.74396
▁fifth	-9.74417
▁science	-9.74426
▁commercial	-9.74427
▁rape	-9.74433
▁else	-9.74452
▁edge	-9.74471
ex	-9.74477
▁piece	-9.74488
▁atlant	-9.74534
▁ab	-9.74553
▁meter	-9.74634
▁dan	-9.74689
▁guilt	-9.74775
▁mayor	-9.74892
ahoo	-9.74964
alem	-9.75021
▁band	-9.75038
▁decline	-9.75075
▁nicol	-9.75157
▁violent	-9.7534
▁fac	-9.7535
ches	-9.75367
▁mine	-9.75494
ious	-9.75662
▁industrial	-9.75757
despi	-9.75768
▁sentenc	-9.75899
ester	-9.75911
▁bag	-9.76011
lost	-9.76075
ef	-9.76154
riff	-9.76242
▁enjoy	-9.76247
▁answer	-9.76247
▁corrupt	-9.76248
▁cabinet	-9.76249
▁resolution	-9.76252
▁coach	-9.76259
▁spark	-9.76259
▁language	-9.7626
▁investment	-9.76262
▁items	-9.76268
▁worrie	-9.76306
▁chica	-9.76331
▁extend	-9.76345
▁remov	-9.76351
▁richard	-9.76356
mph	-9.76524
▁caucuse	-9.7668
▁diplomatic	-9.7678
ir	-9.76951
▁wild	-9.76962
▁organiz	-9.77048
▁climb	-9.77142
▁collapse	-9.7718
tion	-9.77215
▁feature	-9.7723
▁formal	-9.77422
ward	-9.77422
▁corp	-9.77506
▁affect	-9.77788
▁northwest	-9.77951
op	-9.7799
under	-9.78049
▁girls	-9.78085
▁uk	-9.78113
▁register	-9.78133
▁headquarter	-9.78133
▁entire	-9.78133
▁failure	-9.78142
▁apartment	-9.78149
▁zimbabwe	-9.7816
▁referr	-9.78179
▁cash	-9.78181
▁appearance	-9.78205
▁fears	-9.78216
▁madrid	-9.7823
ev	-9.78343
▁rough	-9.78399
▁questions	-9.7843
▁describe	-9.78462
▁du	-9.78525
ical	-9.78746
ot	-9.78829
▁require	-9.7885
▁ring	-9.79021
ino	-9.79079
▁drugs	-9.79211
au	-9.79226
▁shown	-9.7936
▁organizer	-9.79411
▁har	-9.79417
▁victim	-9.79629
▁command	-9.79682
▁complain	-9.79783
ke	-9.80014
▁qualit	-9.8006
▁cyclone	-9.80061
▁type	-9.80063
▁promis	-9.80223
▁joined	-9.80239
▁km	-9.80325
mon	-9.80361
▁owner	-9.80523
ither	-9.81327
spread	-9.81551
▁winds	-9.81562
▁inc	-9.81619
▁constitution	-9.81678
since	-9.81695
▁speci	-9.81763
che	-9.81803
▁wrong	-9.82018
▁regular	-9.82018
▁penalt	-9.82018
▁orbit	-9.82022
▁portug	-9.82024
▁floor	-9.82033
▁christian	-9.82044
▁adopt	-9.82051
▁williams	-9.82054
▁baby	-9.82056
▁rod	-9.82074
▁demonstrator	-9.82075
▁elector	-9.82086
▁quit	-9.8209
▁powerful	-9.82121
tts	-9.82255
▁auction	-9.82268
▁pack	-9.82341
▁lake	-9.82376
ept	-9.8239
▁row	-9.82414
▁author	-9.82422
▁ji	-9.82541
▁studie	-9.82548
▁tough	-9.82623
ure	-9.82681
▁score	-9.82709
led	-9.82729
▁import	-9.82814
▁scale	-9.82832
▁gar	-9.82977
▁mis	-9.83045
▁refugee	-9.83272
▁pictures	-9.83672
jo	-9.83863
▁shut	-9.83992
▁respect	-9.83997
▁resort	-9.84017
▁virtual	-9.84017
▁ticket	-9.84017
▁specific	-9.8402
▁style	-9.84022
▁regard	-9.84022
▁combat	-9.84028
▁hair	-9.84035
▁presum	-9.84035
▁vega	-9.84054
▁ca	-9.84098
▁sometime	-9.84148
▁weight	-9.84189
▁witnesses	-9.84347
ified	-9.84549
▁tear	-9.84595
ver	-9.8463
▁career	-9.8472
q	-9.84784
▁earn	-9.84888
▁wave	-9.85046
▁god	-9.8511
▁fo	-9.85113
▁producer	-9.85442
cha	-9.85507
hai	-9.85568
rew	-9.85578
field	-9.85578
▁guards	-9.85769
▁equal	-9.8598
▁spirit	-9.86058
▁license	-9.86058
▁trigger	-9.86058
▁construction	-9.86058
▁competition	-9.86059
▁complex	-9.86061
▁marri	-9.86062
▁degree	-9.86063
▁table	-9.86073
▁disney	-9.86076
▁vow	-9.86094
▁self	-9.86094
▁dutch	-9.86123
▁dark	-9.86222
▁roll	-9.86236
▁box	-9.86446
▁sky	-9.86504
con	-9.86679
▁stoo	-9.86789
▁blame	-9.86917
▁perform	-9.86945
▁fled	-9.86993
▁struggl	-9.87426
▁photograph	-9.87463
zza	-9.8796
▁promise	-9.87963
▁feder	-9.88133
▁content	-9.88136
▁equipment	-9.88141
▁magazine	-9.88141
▁magnitude	-9.88141
▁perfect	-9.88141
▁practice	-9.88141
▁straight	-9.88141
▁abandon	-9.88141
▁opinion	-9.88141
▁resource	-9.88142
▁oscar	-9.88142
▁positive	-9.88142
▁crucial	-9.88153
▁voice	-9.88157
▁individual	-9.88177
▁flee	-9.8818
▁user	-9.8819
▁shape	-9.88316
▁proposal	-9.88363
ily	-9.88555
▁culture	-9.88629
▁kenyan	-9.88672
▁chi	-9.88686
aks	-9.88709
▁stake	-9.88789
▁determined	-9.88867
▁bann	-9.89006
lor	-9.89068
▁waste	-9.89199
▁sports	-9.89238
western	-9.89262
▁ali	-9.89389
bel	-9.89569
cu	-9.89703
back	-9.90037
▁flag	-9.90145
▁extreme	-9.90269
▁louis	-9.90269
▁shock	-9.90269
▁virus	-9.9027
▁fraud	-9.90274
▁assistance	-9.9028
▁hurricane	-9.90285
▁shift	-9.90329
▁exist	-9.90332
▁mount	-9.90351
ft	-9.90378
▁ag	-9.90513
▁schools	-9.90542
va	-9.90644
▁relie	-9.90691
huse	-9.90713
▁display	-9.90734
▁hole	-9.9118
ural	-9.91282
▁word	-9.91494
ster	-9.91499
▁involve	-9.91543
ren	-9.9159
▁jame	-9.91723
ci	-9.91725
ax	-9.9177
▁ahmad	-9.91795
gi	-9.91803
▁whale	-9.91879
house	-9.91912
work	-9.92042
▁pledg	-9.92046
▁environment	-9.92132
▁bombings	-9.92153
▁journal	-9.92422
▁vietnam	-9.92443
▁mccann	-9.92443
▁dream	-9.92443
▁studio	-9.92443
▁malik	-9.9245
▁influence	-9.92455
▁conservative	-9.9246
▁physical	-9.92489
▁hussein	-9.92491
▁rat	-9.92492
▁violation	-9.92526
▁winter	-9.92527
▁setting	-9.92532
▁citizen	-9.9255
▁advance	-9.92644
ribal	-9.92661
▁koreans	-9.92747
▁secure	-9.9275
▁boss	-9.92819
▁nad	-9.92846
sburg	-9.92927
los	-9.93206
▁imposed	-9.93373
▁contests	-9.9357
▁scar	-9.93666
▁declin	-9.93844
▁tens	-9.93869
▁memor	-9.93996
▁heat	-9.94052
▁character	-9.94143
water	-9.9419
president	-9.94197
▁hill	-9.94226
ny	-9.94322
like	-9.94424
▁delivery	-9.94472
▁cuba	-9.94487
▁massac	-9.94503
▁mu	-9.94534
pe	-9.9454
▁tight	-9.94605
▁regime	-9.94653
cient	-9.94654
tter	-9.94657
▁bottle	-9.94665
▁destructi	-9.94665
▁medicine	-9.94665
▁remote	-9.94665
▁entertain	-9.94665
▁modern	-9.94665
▁alliance	-9.94666
▁ronald	-9.94667
▁vacation	-9.94667
▁surface	-9.94667
▁division	-9.94682
▁sunni	-9.94686
▁successful	-9.94694
▁possibilit	-9.94695
▁assassination	-9.94719
▁enforce	-9.94722
▁effective	-9.94754
▁insurgent	-9.94767
▁kick	-9.94773
▁indicate	-9.948
▁location	-9.94855
▁trust	-9.9496
▁sha	-9.9497
▁damag	-9.95009
▁theater	-9.95011
▁brand	-9.95121
▁jur	-9.95161
▁amount	-9.95176
▁movies	-9.95197
▁smoke	-9.95371
▁convention	-9.95397
▁forecast	-9.9566
▁arrive	-9.95709
▁im	-9.95865
▁counter	-9.95891
▁employ	-9.95962
▁flow	-9.96203
▁patrol	-9.96363
▁brun	-9.9638
car	-9.96409
speak	-9.9646
space	-9.96461
china	-9.96515
▁indicat	-9.96523
▁smok	-9.96795
que	-9.96813
▁roads	-9.96902
▁ukrain	-9.96924
▁peninsula	-9.96938
▁shuttle	-9.96938
▁colleague	-9.96938
▁split	-9.96938
▁freedom	-9.96949
lu	-9.96965
▁gates	-9.96983
▁catch	-9.96994
▁blow	-9.96996
▁id	-9.97036
▁roh	-9.97058
▁mike	-9.97189
▁khan	-9.97216
▁restaurant	-9.97216
▁names	-9.9739
▁chile	-9.97432
▁venezuelan	-9.97519
▁whole	-9.9775
▁singer	-9.97965
▁crop	-9.98118
▁pr	-9.9841
▁mexic	-9.98425
▁zealand	-9.9848
▁minor	-9.98527
▁sw	-9.98559
ub	-9.98616
well	-9.98685
min	-9.98951
▁object	-9.99035
▁predict	-9.99061
drew	-9.99157
▁advertis	-9.99259
▁zoo	-9.99259
▁convoy	-9.99263
▁suburb	-9.99263
▁dismiss	-9.99263
▁dvd	-9.99264
rizon	-9.99265
▁various	-9.99266
▁rapid	-9.99271
▁queen	-9.99273
▁management	-9.99281
▁recall	-9.99287
▁governor	-9.99293
▁lady	-9.99298
huan	-9.99302
▁learn	-9.99339
▁globe	-9.99378
▁suit	-9.99415
▁abba	-9.99433
▁imp	-9.99466
▁tin	-9.99499
ire	-9.99538
▁beyon	-9.99548
▁martin	-9.99549
▁stores	-9.99578
▁picture	-9.99669
▁cor	-9.99697
hire	-10.0002
▁net	-10.0005
▁chose	-10.0008
▁pc	-10.0009
▁propert	-10.001
wa	-10.0011
▁prisoner	-10.0015
▁han	-10.0029
▁systems	-10.0063
unt	-10.007
▁evacuat	-10.0074
▁makes	-10.0075
oil	-10.0083
▁sadd	-10.0094
▁thank	-10.0094
nivers	-10.0122
▁peru	-10.0134
gun	-10.0144
▁terms	-10.0151
▁prove	-10.0154
▁sit	-10.0158
▁mad	-10.0161
▁stadium	-10.0164
▁explod	-10.0164
▁margin	-10.0164
▁happy	-10.0164
▁flame	-10.0165
▁heavi	-10.0165
▁stretch	-10.0166
▁canadian	-10.0166
▁plus	-10.0166
▁motor	-10.0166
▁carbon	-10.0166
▁ongoing	-10.017
▁enem	-10.017
▁gang	-10.0175
▁teacher	-10.0176
▁choose	-10.0178
▁connection	-10.018
▁active	-10.0181
ptive	-10.0184
ota	-10.0193
▁dam	-10.0198
▁discussion	-10.0199
▁chad	-10.02
▁percentage	-10.0215
▁politic	-10.0251
bar	-10.0254
iana	-10.027
▁traveler	-10.0271
▁provinces	-10.0272
hu	-10.0272
▁rail	-10.0293
▁lama	-10.0298
▁hang	-10.032
▁runner	-10.0342
oline	-10.0347
ay	-10.0348
right	-10.0348
▁diplomat	-10.0348
what	-10.0362
iro	-10.0363
▁historic	-10.037
▁tall	-10.0387
air	-10.04
▁extra	-10.0404
▁agricultur	-10.0408
▁error	-10.0408
▁identify	-10.0408
▁sponsor	-10.0408
▁temperature	-10.0408
▁expand	-10.0408
▁shelter	-10.0408
▁domestic	-10.0408
▁jew	-10.0409
▁detonat	-10.0409
▁temporar	-10.0411
▁sleep	-10.0416
▁execution	-10.0417
▁casualt	-10.0417
▁favor	-10.0424
▁works	-10.0425
▁loan	-10.0428
▁simpl	-10.0434
▁belong	-10.0435
lin	-10.0439
▁era	-10.0441
▁indiana	-10.0444
▁gi	-10.0451
▁statu	-10.046
▁cons	-10.0461
light	-10.0473
enko	-10.0475
▁cold	-10.0476
table	-10.048
▁resolve	-10.0492
▁za	-10.0492
▁southwest	-10.0493
angi	-10.0507
▁presen	-10.051
▁nasa	-10.0515
aro	-10.0532
vili	-10.0536
▁br	-10.054
▁surge	-10.0541
af	-10.0554
▁tom	-10.0567
ang	-10.0574
▁improve	-10.0585
▁isolat	-10.0585
▁provinc	-10.0602
▁serbia	-10.0625
lie	-10.0626
just	-10.063
▁song	-10.0637
▁issu	-10.0638
▁welcome	-10.0646
▁attract	-10.0648
▁erupt	-10.0649
▁dialogue	-10.0658
▁profile	-10.0658
▁condole	-10.0658
▁actress	-10.0658
▁valley	-10.0658
▁representative	-10.0659
▁retir	-10.0659
▁remember	-10.0661
▁ei	-10.0662
▁outbreak	-10.0663
▁wake	-10.0663
▁sector	-10.0663
▁declaration	-10.0667
▁wind	-10.0669
▁simpson	-10.067
ville	-10.0671
alai	-10.068
▁easy	-10.0689
ntagon	-10.0695
▁hall	-10.0698
▁soar	-10.0702
▁cow	-10.0712
▁ti	-10.0714
▁escap	-10.0727
▁youth	-10.0741
uk	-10.0746
▁signal	-10.0747
▁nik	-10.0756
▁encourage	-10.0762
aid	-10.0762
▁osa	-10.0767
ement	-10.0786
▁mars	-10.0792
ants	-10.0794
▁gov	-10.0813
▁manufactur	-10.0818
attle	-10.0831
▁jose	-10.087
▁possibl	-10.0875
▁te	-10.0877
▁restaurants	-10.0885
▁manch	-10.0892
▁vat	-10.0895
▁arms	-10.0896
▁easi	-10.0896
▁kenne	-10.0912
▁ethnic	-10.0915
▁journey	-10.0915
▁militia	-10.0915
▁bay	-10.0915
▁narrow	-10.0915
▁breath	-10.0915
▁fresh	-10.0915
▁edward	-10.0916
▁egypt	-10.0916
▁festival	-10.0916
▁mohamm	-10.0917
▁panel	-10.0918
▁peak	-10.0919
▁temple	-10.0919
▁version	-10.0919
▁abdulla	-10.0921
▁bangladesh	-10.0922
▁transfer	-10.0922
▁campus	-10.0922
▁generation	-10.0923
▁shortage	-10.0925
▁guest	-10.0927
▁serv	-10.0928
▁calm	-10.0929
▁glass	-10.093
▁print	-10.0943
▁steps	-10.0953
▁ski	-10.096
▁activit	-10.0961
▁buri	-10.0965
▁basic	-10.097
▁hung	-10.0984
▁rom	-10.1004
▁standing	-10.1006
▁relative	-10.1009
▁dominate	-10.1009
itarian	-10.1013
▁x	-10.1015
ug	-10.1022
▁hug	-10.1025
▁tensions	-10.104
▁mont	-10.1048
▁ensure	-10.1049
▁artist	-10.1049
▁reserve	-10.1052
▁wi	-10.1054
▁rank	-10.1064
▁liver	-10.1064
▁duba	-10.1097
▁plot	-10.11
▁prepar	-10.1124
nix	-10.1125
pool	-10.1131
▁academ	-10.1146
▁remove	-10.1163
▁lu	-10.1167
▁detect	-10.1167
▁metal	-10.1173
▁advantage	-10.1178
▁client	-10.1178
▁athlete	-10.1178
▁famous	-10.1178
▁obtain	-10.1178
▁doubt	-10.1178
▁celebrit	-10.1178
▁pilot	-10.1178
▁fellow	-10.1179
▁acre	-10.1179
▁sister	-10.1181
▁mc	-10.1181
▁pirate	-10.1182
▁tropic	-10.1182
▁apple	-10.1184
▁eventual	-10.1186
▁halt	-10.1188
▁grave	-10.1189
▁cb	-10.1191
▁profit	-10.1193
surance	-10.1199
▁stepp	-10.1207
▁wa	-10.1212
▁internal	-10.1215
▁complaint	-10.1216
▁foundation	-10.122
▁ram	-10.1225
▁putt	-10.1227
▁arrival	-10.123
▁multi	-10.126
▁tend	-10.1263
▁replace	-10.1263
▁dub	-10.1288
▁partner	-10.1289
▁cla	-10.1292
▁captur	-10.1295
ix	-10.1302
▁accepted	-10.1304
rah	-10.1317
▁dut	-10.1318
▁gree	-10.1354
pped	-10.1363
▁canad	-10.1373
ett	-10.1387
▁steve	-10.141
ual	-10.1419
▁acknowledg	-10.1429
ella	-10.1443
▁prepared	-10.1443
▁recommend	-10.1445
▁pump	-10.1448
▁exhibit	-10.1448
▁catholic	-10.1448
▁concert	-10.1448
▁channel	-10.1448
▁disappoint	-10.1448
▁exact	-10.1448
▁hawaii	-10.1448
▁audience	-10.1448
▁rallie	-10.1448
▁illness	-10.1449
▁championship	-10.145
▁knee	-10.145
▁opponent	-10.145
▁genetic	-10.1451
▁machine	-10.1451
▁vitamin	-10.1452
▁birthday	-10.1452
▁numer	-10.1452
▁weaken	-10.1452
▁strengthen	-10.1452
▁label	-10.1453
▁hospitaliz	-10.1454
▁columbia	-10.1455
ova	-10.1458
▁frank	-10.1462
▁task	-10.1463
ground	-10.1473
▁phones	-10.1476
▁allie	-10.1476
▁ri	-10.1479
▁photos	-10.1491
cer	-10.1493
suu	-10.1496
▁fi	-10.1497
▁las	-10.1503
▁fat	-10.1508
▁wood	-10.1512
▁package	-10.1524
erson	-10.1524
▁painting	-10.155
▁pregnan	-10.1555
ju	-10.158
▁min	-10.1582
cc	-10.1589
▁domin	-10.1599
rg	-10.1603
▁carrier	-10.1603
▁cave	-10.1615
▁relatives	-10.1629
▁closer	-10.1645
indi	-10.1661
▁il	-10.1721
▁hol	-10.1722
▁disappear	-10.1724
▁danger	-10.1725
▁buddhist	-10.1726
▁divorce	-10.1726
▁ecuador	-10.1726
▁alaska	-10.1726
▁diamond	-10.1726
▁panama	-10.1726
▁sweet	-10.1726
▁neck	-10.1728
▁banks	-10.1729
▁huck	-10.1729
▁charit	-10.173
▁delta	-10.1731
▁explosives	-10.1732
haps	-10.1732
▁gallon	-10.1733
▁abu	-10.1739
▁teenager	-10.174
▁restriction	-10.174
▁pitt	-10.1741
cal	-10.1741
▁bright	-10.1744
▁probe	-10.1746
▁shang	-10.175
▁tho	-10.1751
▁olme	-10.1752
▁tsv	-10.1756
▁matche	-10.1757
▁gay	-10.1767
htt	-10.1784
▁par	-10.1786
ji	-10.1801
tar	-10.1805
▁mor	-10.181
▁va	-10.1815
▁spring	-10.1816
▁palm	-10.1821
ira	-10.1828
▁col	-10.1835
▁clashe	-10.1838
▁vessel	-10.1855
dney	-10.1855
▁teen	-10.1856
▁benefit	-10.1861
istic	-10.1865
▁passenger	-10.1866
▁feeling	-10.187
llah	-10.1877
keeper	-10.188
▁bone	-10.1884
▁pacifi	-10.1885
mont	-10.1888
gue	-10.1911
▁replac	-10.1917
ow	-10.1924
▁stars	-10.1928
▁cre	-10.1928
▁lose	-10.1934
rome	-10.1938
▁engine	-10.1955
▁sam	-10.1957
du	-10.1959
book	-10.1965
▁simple	-10.1967
among	-10.1971
▁sport	-10.1978
▁scot	-10.1986
▁confiden	-10.1986
ill	-10.1992
▁withdraw	-10.1994
▁infect	-10.1998
▁ya	-10.2003
▁hamp	-10.2011
▁fashion	-10.2012
▁coffee	-10.2012
▁plastic	-10.2012
▁devastat	-10.2012
▁compound	-10.2012
▁dump	-10.2012
▁trapped	-10.2012
com	-10.2012
▁philippine	-10.2012
▁arsenal	-10.2014
▁loyal	-10.2016
▁proud	-10.2017
▁extremist	-10.2018
▁exercise	-10.2019
jad	-10.2021
▁wonder	-10.2023
▁sadr	-10.2027
▁mart	-10.203
▁wal	-10.2034
▁structure	-10.2035
io	-10.2042
▁ni	-10.2042
▁cable	-10.2058
port	-10.2074
▁cia	-10.2082
bed	-10.2084
▁der	-10.2094
▁princes	-10.2094
▁asp	-10.2097
▁path	-10.2101
▁hunt	-10.2108
not	-10.2108
▁defend	-10.2114
▁rep	-10.2121
▁flu	-10.2122
▁striker	-10.2126
▁pho	-10.2133
▁pav	-10.2139
▁pose	-10.2141
▁skin	-10.2146
▁mistake	-10.2168
▁weapon	-10.217
▁laho	-10.2173
▁roman	-10.2174
▁requir	-10.2187
▁revolutionar	-10.2202
omic	-10.2225
▁recognize	-10.2236
▁announce	-10.2252
japan	-10.2258
islam	-10.226
▁yi	-10.2264
▁offering	-10.2267
▁thanks	-10.2269
four	-10.227
▁malaysia	-10.2271
gh	-10.2291
ld	-10.2298
▁connect	-10.2299
▁alcohol	-10.2299
▁robot	-10.23
▁knock	-10.2306
▁landslide	-10.2306
▁strategy	-10.2306
▁subject	-10.2306
▁unusual	-10.2306
▁emission	-10.2306
▁babies	-10.2306
▁scandal	-10.2306
▁ballot	-10.2307
▁ceo	-10.2308
▁elder	-10.2309
▁throw	-10.2309
▁books	-10.231
▁yemen	-10.231
▁rush	-10.2311
▁dramatic	-10.2312
▁typical	-10.2312
▁unclea	-10.2319
▁corner	-10.232
▁jack	-10.2321
▁lung	-10.2324
▁squad	-10.2332
put	-10.2345
▁mer	-10.2352
▁cooperati	-10.2372
▁founder	-10.2399
▁survive	-10.2408
▁notice	-10.242
▁aide	-10.2426
eath	-10.2429
▁tr	-10.244
fu	-10.244
▁beck	-10.2441
ities	-10.2453
▁sense	-10.2454
val	-10.247
▁sch	-10.2485
▁ten	-10.2485
live	-10.2494
▁petr	-10.2518
▁escape	-10.2526
▁anna	-10.2543
fa	-10.255
bush	-10.2566
▁finance	-10.2579
▁decide	-10.2588
▁coup	-10.2609
▁sustain	-10.2609
▁capacity	-10.2609
▁chemical	-10.2609
▁coordinat	-10.2609
▁mahmoud	-10.2609
▁purpose	-10.2609
▁regulation	-10.2609
▁lawsuit	-10.2609
▁maxim	-10.2609
▁excit	-10.2609
▁identit	-10.2609
▁invasion	-10.2609
▁maryland	-10.2609
▁boyfriend	-10.2609
▁daniel	-10.2609
▁separatist	-10.2609
▁religious	-10.2611
▁cheap	-10.2611
▁resume	-10.2613
▁volcano	-10.2613
▁preliminar	-10.2614
▁shoe	-10.2618
▁defendant	-10.2619
tro	-10.263
▁hot	-10.2631
▁bound	-10.2632
▁cal	-10.2633
▁organ	-10.2637
▁symbol	-10.2637
▁angr	-10.2643
ron	-10.2655
uke	-10.2674
▁divers	-10.2674
▁improv	-10.2694
hel	-10.2698
these	-10.2699
▁v	-10.2702
▁restore	-10.2707
▁rome	-10.2711
potter	-10.2716
▁stag	-10.2742
▁cl	-10.2744
ek	-10.2755
▁pet	-10.276
▁serving	-10.2777
▁pursu	-10.2777
▁capture	-10.2785
▁pan	-10.2796
▁delegate	-10.2805
▁demonstration	-10.2806
ture	-10.2821
hol	-10.2827
▁politicians	-10.2828
gar	-10.2834
mer	-10.2837
iya	-10.2846
▁chip	-10.2865
wise	-10.2867
people	-10.2874
▁investigate	-10.2874
fire	-10.2879
pr	-10.2882
▁ph	-10.2882
▁nur	-10.2915
▁combin	-10.2921
▁astronaut	-10.2921
▁routine	-10.2921
▁method	-10.2921
▁desert	-10.2921
▁kidnapping	-10.2921
▁wildlife	-10.2921
▁cafe	-10.2922
▁wedding	-10.2922
▁commitment	-10.2923
▁prett	-10.2924
▁yard	-10.2925
▁professional	-10.2925
▁assist	-10.2927
▁auto	-10.2929
▁section	-10.293
lum	-10.2936
▁afford	-10.2937
▁infection	-10.2937
▁mix	-10.2938
old	-10.2939
▁liter	-10.294
▁skill	-10.2945
▁mouth	-10.2945
seas	-10.2951
▁firefighter	-10.2951
▁confident	-10.2952
hood	-10.2966
▁debut	-10.2971
▁marked	-10.2996
▁beef	-10.3002
▁tire	-10.3017
▁argu	-10.3018
ribe	-10.3025
pro	-10.3027
▁compete	-10.3027
▁chain	-10.3033
▁rescuer	-10.3036
▁speaker	-10.3036
▁inform	-10.3046
▁mal	-10.3053
▁wine	-10.3056
▁reading	-10.3061
▁eyes	-10.3066
▁aware	-10.3071
low	-10.3082
▁clon	-10.3102
▁mate	-10.3135
▁detail	-10.3137
rry	-10.3142
cher	-10.3145
▁shin	-10.3153
▁divid	-10.3162
ending	-10.3166
▁fatal	-10.3166
▁schedule	-10.3166
▁landing	-10.3167
▁freed	-10.317
▁wish	-10.3173
robi	-10.3189
mccain	-10.3196
tube	-10.3197
kov	-10.3205
▁ke	-10.322
▁collect	-10.3221
witz	-10.3233
▁govern	-10.3237
▁anonym	-10.3242
▁aftershock	-10.3244
▁conversation	-10.3244
▁revenue	-10.3244
▁technical	-10.3244
▁strain	-10.3244
akash	-10.3245
▁assessment	-10.3245
▁reduction	-10.3245
▁assistant	-10.3246
▁atmospher	-10.3246
▁income	-10.3246
▁deployment	-10.3248
▁fix	-10.3249
▁chelsea	-10.3249
▁blaze	-10.3251
▁wealth	-10.3254
▁smith	-10.3257
▁tech	-10.3267
▁unlike	-10.3268
▁santa	-10.3272
ically	-10.3279
▁gathering	-10.329
▁foreigner	-10.3291
▁constitutional	-10.3305
▁tee	-10.3328
ank	-10.3333
▁cheer	-10.3352
▁struggle	-10.3356
agan	-10.3363
▁sic	-10.3367
▁ray	-10.337
▁mac	-10.3394
ade	-10.3395
▁beating	-10.3407
ib	-10.342
▁hat	-10.3423
▁harm	-10.3429
▁surviv	-10.343
▁accuse	-10.3437
▁file	-10.3448
▁strik	-10.3448
▁depend	-10.3455
▁hum	-10.3478
▁champion	-10.348
▁rap	-10.3482
east	-10.3491
▁engag	-10.3494
arta	-10.3499
ular	-10.3502
▁reduc	-10.3509
het	-10.3519
north	-10.353
hran	-10.3536
room	-10.3541
▁faye	-10.3544
fall	-10.3547
▁presiden	-10.3549
▁nai	-10.3552
ensive	-10.3562
sul	-10.3572
▁carrie	-10.3573
▁ear	-10.3575
des	-10.3575
▁mortgage	-10.3577
▁recession	-10.3577
▁anticipat	-10.3577
▁categor	-10.3577
▁quiet	-10.3577
▁urban	-10.3577
▁captain	-10.3577
▁unveil	-10.3577
▁sudden	-10.3577
▁quarterfinal	-10.3577
▁hindu	-10.3578
▁toilet	-10.3578
▁football	-10.3578
▁tiger	-10.3579
▁stole	-10.3579
▁disappearance	-10.3579
▁lock	-10.358
▁bond	-10.3581
bus	-10.3584
▁storie	-10.3587
▁economist	-10.359
▁sand	-10.359
▁villa	-10.3591
acco	-10.3594
▁vast	-10.3596
▁withdrawal	-10.3598
▁z	-10.3601
▁offender	-10.3602
▁ge	-10.3622
van	-10.3623
▁gap	-10.3629
▁pair	-10.3632
▁maker	-10.3635
▁manag	-10.3645
▁wis	-10.3656
overall	-10.3674
▁lay	-10.3688
row	-10.3692
▁gamb	-10.3697
ker	-10.3712
▁prop	-10.3712
▁cd	-10.3729
ative	-10.373
ord	-10.3731
▁promote	-10.3731
▁medi	-10.3736
▁taxe	-10.3743
▁collaps	-10.3749
bur	-10.3761
▁lin	-10.3765
stein	-10.3771
lated	-10.3777
qu	-10.378
nes	-10.38
nature	-10.38
▁chao	-10.3807
lain	-10.3827
▁threats	-10.3835
ott	-10.3839
▁dai	-10.3845
▁hero	-10.3871
▁heads	-10.3872
baghdad	-10.3874
beth	-10.3887
▁violat	-10.3895
▁au	-10.3896
▁via	-10.3902
▁select	-10.3912
▁bl	-10.3913
nder	-10.3915
▁experiment	-10.3922
▁guarantee	-10.3922
▁endanger	-10.3922
▁convert	-10.3922
▁referend	-10.3922
▁function	-10.3922
▁technique	-10.3922
▁girlfriend	-10.3922
▁variet	-10.3923
▁steel	-10.3923
▁dinner	-10.3923
▁knowledge	-10.3923
▁kingdom	-10.3923
▁balance	-10.3923
▁creature	-10.3924
▁ku	-10.3925
▁alternative	-10.3925
opec	-10.3927
cia	-10.3927
▁invite	-10.3928
▁reaction	-10.393
▁giuli	-10.393
▁bak	-10.3931
▁highlight	-10.3931
▁worry	-10.3932
▁congo	-10.3933
▁complicat	-10.3936
▁lowest	-10.3939
▁switch	-10.3941
▁tribe	-10.3946
▁shore	-10.3946
▁brad	-10.3952
▁plate	-10.3952
▁twin	-10.3961
▁overwhelming	-10.3966
▁robber	-10.3968
▁ch	-10.3978
▁mill	-10.3978
▁trader	-10.3982
▁attacker	-10.3983
▁meh	-10.3983
▁holy	-10.3986
▁cuban	-10.399
▁beer	-10.3992
▁emp	-10.3993
▁anger	-10.4002
ippi	-10.4041
▁sala	-10.4045
▁regions	-10.4048
▁mat	-10.4069
▁battl	-10.4079
▁benefits	-10.4108
▁ze	-10.4114
▁ranking	-10.4118
athrow	-10.4126
▁dec	-10.4129
▁pri	-10.4139
▁argentin	-10.4156
▁custom	-10.4169
▁cloth	-10.4175
▁restor	-10.4177
▁stem	-10.4183
gra	-10.4197
once	-10.4208
▁merc	-10.4208
ega	-10.4209
▁rockets	-10.4222
prime	-10.4232
aeus	-10.4234
▁shots	-10.4237
▁hid	-10.4239
▁cur	-10.4248
▁settle	-10.427
▁tank	-10.4274
▁deploy	-10.4275
▁drama	-10.4277
▁expos	-10.4279
▁bureau	-10.4279
▁airstrike	-10.4279
▁bottom	-10.4279
▁reconciliation	-10.4279
▁transplant	-10.4279
▁typhoon	-10.4279
▁vladimir	-10.4279
▁gulf	-10.4279
▁faith	-10.4279
▁length	-10.4279
▁favorite	-10.4279
▁sweep	-10.4279
▁shopping	-10.4279
▁firing	-10.428
▁shirt	-10.428
▁jungle	-10.4282
▁evolution	-10.4282
▁controversial	-10.4282
▁edition	-10.4282
▁ibm	-10.4283
▁oust	-10.4283
▁castro	-10.4283
▁laurea	-10.4284
▁bull	-10.4285
▁reactor	-10.4285
▁jeff	-10.4285
▁charles	-10.4286
▁memorial	-10.4286
▁truth	-10.4287
▁barcelon	-10.4287
▁familiar	-10.4287
▁specialist	-10.4288
▁asset	-10.4288
▁gra	-10.4289
war	-10.4291
▁debt	-10.4291
▁participat	-10.4291
▁patric	-10.4296
▁pitch	-10.4298
▁wheel	-10.4299
▁native	-10.43
can	-10.4301
▁fox	-10.4301
▁sort	-10.4301
▁bail	-10.4311
▁meat	-10.4325
▁moo	-10.4334
▁gm	-10.4336
hal	-10.4343
▁mas	-10.4379
true	-10.4379
▁waters	-10.4381
▁qu	-10.4385
ect	-10.4388
▁entering	-10.439
harto	-10.4392
▁intens	-10.44
▁photographer	-10.44
▁celebrat	-10.4402
▁flower	-10.4414
▁ham	-10.4416
▁string	-10.4418
putin	-10.4432
▁ways	-10.4448
▁bell	-10.4453
▁ok	-10.4457
▁cultur	-10.4458
▁pen	-10.4463
ological	-10.4475
▁ire	-10.4476
▁cutt	-10.4509
▁q	-10.4522
ersey	-10.4535
ris	-10.4542
▁spa	-10.4556
hattan	-10.4559
▁tradition	-10.4566
▁stands	-10.4579
▁photo	-10.4594
court	-10.4602
still	-10.4617
▁legislati	-10.4619
mond	-10.462
ach	-10.4623
both	-10.4623
▁weigh	-10.4626
▁assassinat	-10.464
gged	-10.4645
▁delegation	-10.465
▁inflation	-10.465
▁luxur	-10.465
▁monarch	-10.465
▁muscle	-10.465
▁vaccine	-10.465
▁succeed	-10.465
▁budget	-10.465
▁album	-10.465
▁kidnapped	-10.465
▁lanka	-10.465
▁plung	-10.465
precedent	-10.465
▁monkey	-10.465
▁bullet	-10.4651
wi	-10.4654
▁technologi	-10.4656
▁strict	-10.4656
uff	-10.4658
▁boom	-10.4659
stone	-10.4659
▁sailor	-10.466
rap	-10.4661
▁authoriz	-10.4665
▁shark	-10.467
▁bri	-10.4674
amid	-10.4678
▁legislat	-10.468
▁berlin	-10.4681
▁debr	-10.4682
▁iron	-10.4684
▁ark	-10.4691
▁spott	-10.4691
tti	-10.4697
▁pace	-10.4697
▁gene	-10.4703
▁pal	-10.4707
tten	-10.4718
▁pledge	-10.4719
ask	-10.4722
ervie	-10.4732
▁laws	-10.4741
▁zar	-10.4742
▁sect	-10.4746
▁pushing	-10.4746
▁para	-10.4753
▁donor	-10.4756
▁runway	-10.4758
fp	-10.4762
▁historical	-10.4765
▁emerged	-10.4766
cent	-10.477
awa	-10.478
▁sons	-10.4781
▁fin	-10.4789
▁complet	-10.4797
▁wage	-10.4803
▁pol	-10.481
ullah	-10.4826
ast	-10.4836
▁op	-10.4843
▁shoot	-10.4852
ional	-10.486
▁boe	-10.4864
▁priorit	-10.4868
cons	-10.4871
▁overcom	-10.4888
▁mel	-10.4906
erland	-10.4906
▁wins	-10.4912
▁proper	-10.4923
▁guy	-10.4957
ford	-10.4964
ible	-10.4973
▁viewer	-10.4976
▁plac	-10.4986
hundred	-10.4986
paris	-10.4987
south	-10.4992
dari	-10.4998
▁rang	-10.5
▁operate	-10.501
▁except	-10.5019
ization	-10.502
▁strength	-10.5028
▁abdul	-10.5031
▁convince	-10.5034
▁detention	-10.5034
▁expensive	-10.5034
▁pilgrim	-10.5034
▁surveill	-10.5034
▁uniform	-10.5034
▁autonom	-10.5034
▁asteroid	-10.5034
▁googl	-10.5034
▁benchmark	-10.5034
▁michel	-10.5034
▁terminal	-10.5034
▁await	-10.5035
▁mississ	-10.5035
▁toxic	-10.5035
▁wireless	-10.5035
▁mccorm	-10.5037
▁master	-10.5038
▁breed	-10.5038
▁lord	-10.504
▁mention	-10.5042
▁jim	-10.5043
▁deadline	-10.5043
▁innocent	-10.5046
▁slipp	-10.5046
▁futures	-10.5046
▁fed	-10.5049
aq	-10.5051
▁swimm	-10.5053
▁crossing	-10.5056
▁roof	-10.5057
erdog	-10.5062
▁renew	-10.5071
▁haven	-10.5072
je	-10.5084
▁clark	-10.5084
▁copy	-10.5091
▁hir	-10.5092
▁musical	-10.5093
▁bow	-10.5094
▁serbian	-10.5096
▁hide	-10.5096
▁tri	-10.5109
▁inch	-10.5109
▁clar	-10.5111
▁sri	-10.5121
▁bi	-10.5125
▁str	-10.5134
▁habitat	-10.5135
bu	-10.5136
▁dow	-10.5137
officials	-10.5158
▁polluti	-10.5159
▁dia	-10.5166
urani	-10.5167
▁soc	-10.5169
ai	-10.5171
soo	-10.5177
▁handle	-10.518
▁write	-10.5195
▁comp	-10.5195
▁mau	-10.5203
fre	-10.5205
lee	-10.5207
▁paint	-10.5219
hud	-10.5229
▁prov	-10.5254
▁mobil	-10.5267
arian	-10.527
▁celebrate	-10.5282
▁cart	-10.531
gone	-10.5311
▁earning	-10.5319
▁rubb	-10.5322
▁maria	-10.5323
▁swis	-10.5326
tri	-10.5328
former	-10.5333
▁meaning	-10.5338
▁bro	-10.5342
▁landed	-10.5343
▁feed	-10.5345
ull	-10.5351
ide	-10.5365
fo	-10.5372
▁none	-10.5374
ique	-10.5374
ail	-10.5376
craft	-10.5382
before	-10.5387
from	-10.5388
▁austria	-10.5394
▁rever	-10.5395
▁rec	-10.5397
▁pi	-10.54
▁worse	-10.5406
five	-10.5417
▁tun	-10.5421
▁participate	-10.5421
▁learned	-10.5421
▁disrupt	-10.5423
▁immigrat	-10.5434
▁emirate	-10.5434
▁procedure	-10.5434
▁confess	-10.5434
▁disorder	-10.5434
▁permanent	-10.5434
▁wreck	-10.5434
▁coincide	-10.5434
▁multiple	-10.5434
▁testimon	-10.5434
▁unknow	-10.5434
▁libert	-10.5434
▁ordinar	-10.5434
▁stalin	-10.5434
▁trend	-10.5435
▁smash	-10.5435
▁arrang	-10.5435
▁element	-10.5436
▁impossibl	-10.5436
▁endorsement	-10.5437
▁flash	-10.5437
▁garden	-10.5437
▁latin	-10.5437
▁priva	-10.5438
▁brazilian	-10.5438
▁phase	-10.5439
▁guide	-10.5439
▁distance	-10.5439
▁wolf	-10.5439
▁rawal	-10.544
▁pattern	-10.5443
▁temp	-10.5444
▁barrier	-10.5444
▁frame	-10.5445
▁ir	-10.5446
▁collection	-10.5448
▁handl	-10.5452
▁kent	-10.5454
▁mourn	-10.5458
▁listen	-10.5463
enna	-10.5464
▁portion	-10.5467
▁plead	-10.5472
▁ride	-10.5475
▁lt	-10.5478
▁hy	-10.548
▁medal	-10.5482
rian	-10.5484
▁map	-10.5494
kin	-10.5495
▁steven	-10.5499
mate	-10.55
ification	-10.5508
▁colon	-10.5523
▁classic	-10.5525
▁cri	-10.5536
▁failing	-10.5536
▁note	-10.5539
▁nei	-10.5543
▁hitt	-10.5545
▁lind	-10.5547
ric	-10.5552
▁carlo	-10.5556
▁cult	-10.5557
edict	-10.5562
▁endur	-10.5563
ulous	-10.5564
▁react	-10.5573
olar	-10.5577
▁ease	-10.5615
▁distribut	-10.5615
▁sad	-10.5625
▁ger	-10.5628
uni	-10.5633
sterda	-10.5659
▁achieve	-10.5677
▁pole	-10.5681
▁spin	-10.5683
▁stress	-10.5685
mor	-10.5687
ila	-10.5698
▁victor	-10.5699
▁clash	-10.5702
shar	-10.5704
dc	-10.5706
▁bacteria	-10.5708
▁rac	-10.5708
▁guns	-10.5715
▁fra	-10.5716
▁pos	-10.5722
▁clo	-10.5727
rim	-10.5727
▁mari	-10.5738
▁fri	-10.5739
▁dry	-10.5762
▁worker	-10.5773
▁spy	-10.5777
top	-10.5784
▁nak	-10.5788
ada	-10.5803
broad	-10.5803
world	-10.5803
▁diet	-10.5803
three	-10.5803
fur	-10.5809
▁pill	-10.581
organ	-10.5817
▁mous	-10.5824
dale	-10.5837
▁explosive	-10.5842
▁rub	-10.5846
ok	-10.5846
▁appoint	-10.5847
mpson	-10.585
▁dissident	-10.5851
▁immigrant	-10.5851
▁landscape	-10.5851
▁reflect	-10.5851
▁scientific	-10.5851
▁caution	-10.5851
▁currenc	-10.5851
▁denounc	-10.5851
▁explain	-10.5851
▁recruit	-10.5851
▁venue	-10.5851
▁constant	-10.5851
▁tennesse	-10.5851
▁semifinal	-10.5851
▁mosque	-10.5851
▁yellow	-10.5851
▁agenda	-10.5851
▁fortune	-10.5851
▁orange	-10.5851
▁abduct	-10.5851
▁salmon	-10.5851
▁solve	-10.5851
▁liquid	-10.5852
▁editor	-10.5852
▁enrich	-10.5853
▁grew	-10.5854
▁bitter	-10.5855
▁settlement	-10.5856
▁frontier	-10.5857
▁batter	-10.5857
▁contrast	-10.5858
▁corporation	-10.586
▁upset	-10.586
▁kuwait	-10.586
▁negotiator	-10.5861
▁sight	-10.5877
▁leftist	-10.5878
▁digital	-10.5879
▁rent	-10.588
had	-10.5881
▁gate	-10.5885
▁bal	-10.5888
rove	-10.589
ball	-10.5891
▁generate	-10.5892
▁inspector	-10.5892
▁conviction	-10.5892
▁weak	-10.59
▁je	-10.59
▁novel	-10.5905
zai	-10.5912
▁branch	-10.5923
▁lie	-10.5931
▁pin	-10.5937
gender	-10.5939
▁endors	-10.594
▁oppose	-10.5943
▁henr	-10.5947
▁negotiat	-10.5956
him	-10.5957
▁marks	-10.5959
▁ill	-10.5962
▁hyun	-10.597
▁fever	-10.5983
dev	-10.5984
ini	-10.5986
▁minorit	-10.5993
dish	-10.6008
▁owners	-10.6026
fe	-10.6037
jan	-10.6046
▁lewi	-10.6047
ox	-10.605
▁featur	-10.6058
▁hospitals	-10.6059
qui	-10.6063
▁prospect	-10.6064
▁vo	-10.6075
erry	-10.6094
▁soil	-10.6095
▁terr	-10.6113
pel	-10.6121
ria	-10.6124
▁surround	-10.6141
▁clothe	-10.615
▁recovery	-10.6168
cut	-10.617
tah	-10.6188
ago	-10.6216
▁fernand	-10.622
▁writing	-10.6225
look	-10.6227
efa	-10.6234
,	-10.6238
born	-10.6241
bon	-10.6242
▁stan	-10.6242
rigue	-10.626
▁communit	-10.6263
▁restrict	-10.6265
▁unity	-10.6271
▁consult	-10.6276
▁apologiz	-10.6278
▁spill	-10.6279
▁micro	-10.6282
▁envoy	-10.6286
▁smuggl	-10.6286
▁exploit	-10.6286
▁veteran	-10.6286
▁relax	-10.6286
▁clinch	-10.6286
▁uganda	-10.6286
▁excess	-10.6286
▁ambitio	-10.6286
▁cartoon	-10.6286
▁orlean	-10.6286
▁clinic	-10.6286
▁inquest	-10.6286
▁tunnel	-10.6286
▁gift	-10.6287
▁thomas	-10.6287
▁ryan	-10.6287
▁moga	-10.6289
▁steal	-10.629
▁obvious	-10.6291
▁glacier	-10.6291
▁careful	-10.6293
▁ultimate	-10.6293
ehouse	-10.6294
▁cool	-10.6295
every	-10.6298
▁jackson	-10.63
▁reward	-10.6302
▁rho	-10.6304
▁operator	-10.6306
▁william	-10.6307
▁grass	-10.6308
ea	-10.6312
rough	-10.6312
▁kan	-10.6316
▁lab	-10.6318
▁tower	-10.6318
▁transition	-10.6322
▁cargo	-10.6324
▁dust	-10.6324
waz	-10.6341
▁examin	-10.6344
▁shipp	-10.6345
ouri	-10.6351
▁entry	-10.6354
▁expectation	-10.6355
▁retailer	-10.6362
▁wip	-10.6368
▁pool	-10.637
▁apolog	-10.6372
▁lights	-10.6387
▁jak	-10.6387
▁rafa	-10.6388
▁undergo	-10.6407
nai	-10.6408
▁jud	-10.6408
▁disc	-10.6412
▁banner	-10.6417
▁uni	-10.6424
▁hasn	-10.6425
▁conspira	-10.6438
pover	-10.6445
▁manufacturer	-10.6454
▁tackle	-10.6471
▁chest	-10.6482
▁pic	-10.649
estate	-10.6495
▁pun	-10.6496
ansa	-10.6499
▁copie	-10.6528
▁kyo	-10.6531
ette	-10.6541
ash	-10.6571
giv	-10.6589
▁negotiate	-10.6591
▁miner	-10.6595
▁whit	-10.6606
▁concept	-10.6619
▁oppos	-10.663
ential	-10.6643
▁colli	-10.6665
▁joe	-10.6683
til	-10.6685
through	-10.6697
pic	-10.6701
long	-10.6705
▁strip	-10.6707
▁kiss	-10.6717
▁aren	-10.6719
▁execut	-10.6722
▁industri	-10.6723
hand	-10.673
▁jihad	-10.6739
▁cu	-10.6739
▁conservation	-10.6739
▁surf	-10.674
▁circumstance	-10.674
▁crocodile	-10.674
▁dolphin	-10.674
▁embarrass	-10.674
▁extraordinar	-10.674
▁jordan	-10.674
▁laptop	-10.674
▁suspicious	-10.674
▁yonhap	-10.674
▁implement	-10.674
▁uncover	-10.674
▁attribut	-10.674
▁eliza	-10.674
▁antarctic	-10.674
▁cease	-10.674
▁conclusion	-10.674
▁outrage	-10.674
▁reference	-10.6741
▁prominen	-10.6741
▁campbell	-10.6741
▁inspir	-10.6741
▁rumor	-10.6741
▁infra	-10.6741
▁sheikh	-10.6741
▁deteriorat	-10.6742
print	-10.6742
▁lunch	-10.6743
▁motion	-10.6743
▁solid	-10.6743
▁egyptian	-10.6743
▁audio	-10.6745
▁minus	-10.6746
▁priest	-10.6747
▁beaut	-10.6748
▁federation	-10.6748
▁float	-10.6748
▁stall	-10.6749
▁amnes	-10.6751
▁fun	-10.6751
▁ethiopian	-10.6752
▁text	-10.6753
▁thick	-10.6756
▁hopeful	-10.6756
▁mental	-10.6757
▁luna	-10.6758
▁deny	-10.6759
▁sacr	-10.6759
▁substantial	-10.6762
▁evacuation	-10.6766
▁approve	-10.6776
▁oversee	-10.6778
▁arch	-10.6779
▁icon	-10.6799
▁mountains	-10.6802
▁trick	-10.6804
▁basi	-10.6811
▁declare	-10.6815
▁observer	-10.6816
▁dat	-10.6821
▁prepare	-10.6837
▁eggs	-10.6844
rich	-10.6856
take	-10.6864
▁maj	-10.6864
▁mud	-10.6872
▁gray	-10.6874
▁lui	-10.6878
▁sensitiv	-10.6883
▁pleas	-10.6886
therland	-10.6887
kei	-10.6898
▁primari	-10.6903
cef	-10.6912
▁refuge	-10.6914
uda	-10.6933
inho	-10.6941
▁nu	-10.6948
▁prais	-10.697
▁drawing	-10.6977
horn	-10.6978
cantil	-10.6983
▁composit	-10.6989
▁fre	-10.6996
▁corps	-10.6997
▁gerr	-10.6997
ula	-10.701
▁rev	-10.7022
cat	-10.7047
onia	-10.7061
▁mwa	-10.7068
▁purchas	-10.7075
iest	-10.7085
▁aids	-10.7099
▁speculat	-10.7108
▁pot	-10.7125
lisa	-10.7127
tv	-10.7136
rotti	-10.7139
▁consum	-10.7144
eh	-10.7149
▁airway	-10.7155
stream	-10.7166
identified	-10.7169
log	-10.717
musha	-10.7176
eva	-10.7186
▁shell	-10.7191
▁pres	-10.7198
▁vulnerab	-10.7207
▁nominat	-10.7207
▁chicken	-10.7216
▁czech	-10.7216
▁dinosaur	-10.7216
▁dispatch	-10.7216
▁expire	-10.7216
▁genocid	-10.7216
▁imagine	-10.7216
▁mirror	-10.7216
▁principle	-10.7216
▁courage	-10.7216
▁liberal	-10.7216
▁guerrilla	-10.7216
▁outdoor	-10.7216
delphi	-10.7216
▁rifle	-10.7216
▁cleric	-10.7216
▁stroke	-10.7217
▁dalla	-10.7217
▁counterpart	-10.7217
▁postpone	-10.7217
▁cyber	-10.7217
▁torture	-10.7217
▁radical	-10.7217
▁appli	-10.7217
▁insult	-10.7218
▁clock	-10.7218
▁thrill	-10.7218
▁petrole	-10.7219
▁billionaire	-10.7219
▁participant	-10.722
▁stephen	-10.7223
▁kidney	-10.7224
▁fierce	-10.7225
burg	-10.7225
▁comfortabl	-10.7227
ioxid	-10.7229
▁slamm	-10.7229
▁headline	-10.723
▁continent	-10.7232
▁realize	-10.7232
▁charter	-10.7233
▁flags	-10.7235
▁mask	-10.7238
▁indication	-10.7242
▁railway	-10.7243
▁accusation	-10.7244
▁payment	-10.7246
▁por	-10.7248
ssett	-10.725
▁arti	-10.7251
mandu	-10.7255
▁bel	-10.7262
▁donation	-10.7264
▁homeless	-10.7268
▁worsen	-10.7269
▁admit	-10.727
▁adventure	-10.7271
dom	-10.7271
peta	-10.7272
iri	-10.7272
▁harv	-10.7281
▁greet	-10.7287
▁institution	-10.7291
▁resistan	-10.7293
▁ferr	-10.7296
▁escalat	-10.7298
▁scott	-10.7301
ench	-10.7308
▁proceeding	-10.7314
▁peacekeep	-10.7315
▁recogniz	-10.7335
ucky	-10.734
▁purchase	-10.736
amil	-10.7362
▁revolution	-10.7389
▁conclud	-10.7393
▁wale	-10.7401
▁scan	-10.7401
▁mom	-10.7417
▁mon	-10.7429
dict	-10.7431
▁pacif	-10.7433
rod	-10.7441
▁cleve	-10.7444
ovic	-10.7462
▁classifie	-10.7474
▁contribut	-10.7479
ux	-10.7489
▁urge	-10.7492
state	-10.7495
▁shah	-10.7498
cin	-10.7511
▁thin	-10.7517
ature	-10.7519
rell	-10.7524
aff	-10.7536
aga	-10.7545
▁argue	-10.7556
▁tool	-10.7567
▁fatalit	-10.7576
▁intention	-10.7585
▁cambodia	-10.7593
▁treasur	-10.7597
▁wash	-10.7601
▁statue	-10.761
▁experienc	-10.7613
▁hostil	-10.7615
ica	-10.7629
pat	-10.763
ark	-10.7631
▁demonstrate	-10.7631
exico	-10.7638
▁resist	-10.7643
▁seal	-10.7649
oma	-10.7653
▁chase	-10.7656
▁andrew	-10.7661
▁em	-10.7663
llo	-10.7666
ider	-10.7669
▁tra	-10.7674
▁introduc	-10.7687
▁teenage	-10.7695
▁transform	-10.7697
hou	-10.7701
dog	-10.7709
▁invest	-10.7709
▁controvers	-10.7712
▁lobby	-10.7714
ake	-10.7716
▁calculat	-10.7716
▁cigarette	-10.7716
▁ibrahim	-10.7716
▁morocc	-10.7716
▁oregon	-10.7716
▁permissi	-10.7716
▁precaution	-10.7716
▁surrender	-10.7716
▁tabloid	-10.7716
▁tissue	-10.7716
▁brutal	-10.7716
▁deserve	-10.7716
▁videotape	-10.7716
▁pepper	-10.7716
▁submit	-10.7716
▁belief	-10.7716
▁hijack	-10.7716
▁protein	-10.7716
▁slump	-10.7717
▁warrant	-10.7717
▁bathroom	-10.7717
▁prosper	-10.7717
munition	-10.7717
▁arrangement	-10.7717
▁bodyguard	-10.7717
▁rudd	-10.7718
▁entrance	-10.7718
▁cloud	-10.7718
▁loose	-10.7718
▁ambush	-10.7719
▁harsh	-10.772
▁puert	-10.7721
▁gear	-10.7721
▁possession	-10.7723
▁argument	-10.7723
grid	-10.7724
▁greek	-10.7725
▁coca	-10.7725
▁nar	-10.7725
▁pichushkin	-10.7728
etti	-10.7735
▁eruption	-10.7736
▁deter	-10.7737
▁mexican	-10.774
▁drought	-10.7742
▁appropriate	-10.7744
▁immun	-10.7747
▁follower	-10.7748
▁bowl	-10.775
▁pig	-10.7753
▁acknowledge	-10.7753
▁displa	-10.7755
▁tanker	-10.7755
▁load	-10.7757
evin	-10.7757
▁rad	-10.7765
▁financ	-10.7765
▁victoria	-10.7768
▁ruin	-10.7772
fare	-10.7777
▁dropping	-10.7778
▁flat	-10.7781
▁rob	-10.7784
▁malaysian	-10.7785
ku	-10.779
udh	-10.7792
▁fate	-10.7793
▁abus	-10.7793
▁advi	-10.7801
▁wire	-10.7805
▁khal	-10.7805
▁ranch	-10.7809
att	-10.7832
▁tre	-10.7837
▁arth	-10.7839
▁indonesian	-10.7846
▁mur	-10.7856
adic	-10.7866
▁direction	-10.7879
▁les	-10.7879
cio	-10.788
▁trans	-10.7881
omar	-10.7885
▁economies	-10.7886
▁swede	-10.7891
▁influ	-10.7894
una	-10.7896
▁shoulder	-10.7899
▁chris	-10.7904
oid	-10.7905
▁gla	-10.7908
▁tea	-10.7914
▁apart	-10.7916
pression	-10.792
▁promot	-10.7929
▁adam	-10.7929
chne	-10.7936
mobile	-10.7942
▁sir	-10.7946
later	-10.7954
▁pursue	-10.7955
▁surg	-10.796
▁peer	-10.7965
▁forecaster	-10.8008
oney	-10.8028
near	-10.8031
▁jay	-10.804
▁shi	-10.8049
▁fisherm	-10.8049
▁realit	-10.8054
russel	-10.8076
▁lion	-10.8081
name	-10.8083
ware	-10.8102
ram	-10.8112
▁corporat	-10.8122
▁bu	-10.8127
▁advise	-10.8137
▁troubl	-10.816
mun	-10.817
▁reli	-10.8183
iran	-10.8192
pl	-10.8193
ello	-10.8196
france	-10.82
▁occur	-10.8223
napoli	-10.8231
▁dictator	-10.8241
▁wrap	-10.8241
▁consequence	-10.8243
▁epicenter	-10.8243
▁expansion	-10.8243
▁frustrat	-10.8243
▁negative	-10.8243
▁orthodox	-10.8243
▁qualify	-10.8243
▁surprising	-10.8243
▁expell	-10.8243
▁imprison	-10.8243
▁recycl	-10.8243
▁reiterat	-10.8243
▁funeral	-10.8243
▁sentiment	-10.8243
▁definite	-10.8243
▁dawn	-10.8243
▁absence	-10.8243
▁saving	-10.8243
▁offense	-10.8243
▁checkpoint	-10.8243
▁obligation	-10.8244
▁legitimate	-10.8244
▁judicia	-10.8244
▁false	-10.8245
▁mini	-10.8245
▁root	-10.8245
▁bloom	-10.8246
▁panda	-10.8246
▁taste	-10.8247
▁dementi	-10.8247
▁zero	-10.8247
▁apply	-10.8249
▁urgent	-10.825
▁closing	-10.8251
▁everywhere	-10.8252
hik	-10.8254
▁leak	-10.8255
▁hip	-10.8256
▁hawk	-10.8258
▁disruption	-10.8258
▁gibbon	-10.826
▁nanc	-10.826
▁vision	-10.8261
▁astronomer	-10.8262
▁tomb	-10.8263
uck	-10.8263
▁phila	-10.8264
▁violate	-10.8265
▁plain	-10.8265
▁celebration	-10.8265
▁prayer	-10.8267
▁horse	-10.8278
▁prec	-10.8283
▁ideal	-10.8287
▁welcom	-10.8294
▁sick	-10.8297
▁imm	-10.8301
▁craft	-10.8308
ob	-10.8317
▁tob	-10.832
▁fame	-10.8328
▁din	-10.8343
grade	-10.8355
▁launching	-10.8355
away	-10.8356
▁coat	-10.836
vor	-10.836
▁designat	-10.8363
cla	-10.8366
▁characteriz	-10.8368
amba	-10.8392
▁starr	-10.8405
▁volunteers	-10.8406
arachi	-10.8411
▁oz	-10.8417
▁fertil	-10.842
bul	-10.8423
rey	-10.843
▁kle	-10.8438
▁odd	-10.8449
▁warner	-10.845
rac	-10.8484
▁contribute	-10.8485
▁tele	-10.8488
▁sole	-10.8508
unk	-10.8523
ola	-10.8524
▁cub	-10.8525
▁alexand	-10.8526
▁lev	-10.8544
▁wav	-10.8549
▁fu	-10.8559
▁install	-10.856
zhe	-10.8578
▁tips	-10.8584
▁accidental	-10.859
▁partners	-10.8591
▁penn	-10.86
standing	-10.8603
elli	-10.8607
▁cru	-10.8607
hav	-10.8607
▁compet	-10.8614
▁resolv	-10.8617
▁rating	-10.8622
▁pollut	-10.8623
roll	-10.8624
▁rains	-10.8624
▁bor	-10.863
vic	-10.8646
▁smil	-10.8655
ngue	-10.8668
▁hil	-10.8676
▁hiv	-10.8704
itzer	-10.871
▁retail	-10.8714
yama	-10.8724
▁correct	-10.873
▁gal	-10.8737
▁pat	-10.8744
▁tim	-10.8744
britain	-10.8751
john	-10.8751
clear	-10.8756
stock	-10.8756
play	-10.8758
maker	-10.8767
stam	-10.877
▁discs	-10.877
▁grab	-10.8777
▁rio	-10.8779
▁televis	-10.8791
▁height	-10.8793
▁deficit	-10.8798
▁encounter	-10.8798
▁fulfill	-10.8798
▁grenade	-10.8798
▁regulator	-10.8798
▁suspension	-10.8798
▁unsuccessful	-10.8798
▁aggressive	-10.8798
▁diagnos	-10.8798
▁guitar	-10.8798
▁rebuild	-10.8798
▁shield	-10.8798
▁volatil	-10.8798
▁potato	-10.8798
▁household	-10.8798
▁skull	-10.8798
▁anchor	-10.8798
▁ahmed	-10.8798
▁traged	-10.8798
starbuck	-10.8798
▁petition	-10.8799
▁substance	-10.8799
▁departure	-10.8799
rbach	-10.8799
▁occupation	-10.8799
▁snake	-10.88
▁crush	-10.88
aspar	-10.88
▁serb	-10.88
▁concede	-10.8801
▁empty	-10.8801
▁roger	-10.8802
▁strand	-10.8802
▁timor	-10.8802
▁undermine	-10.8804
▁iphone	-10.8804
▁impose	-10.8805
▁jamie	-10.8805
▁detainee	-10.8806
▁preparation	-10.8806
▁torre	-10.8806
▁replacement	-10.8808
▁distribution	-10.8808
eba	-10.8809
▁bangkok	-10.8814
▁closure	-10.8814
▁embryo	-10.8815
▁chant	-10.8815
▁rigg	-10.8815
crete	-10.8816
▁mall	-10.8816
▁hail	-10.8818
jab	-10.8822
▁antoni	-10.8823
▁grabb	-10.8825
▁visibl	-10.8828
▁portray	-10.8847
▁deck	-10.885
early	-10.8857
▁trace	-10.8859
▁traffick	-10.8859
▁contractor	-10.8873
▁afr	-10.8874
▁spike	-10.888
▁sars	-10.8882
▁stead	-10.8882
▁joke	-10.8882
▁riding	-10.889
orrow	-10.8892
▁xu	-10.8894
▁irr	-10.8899
▁chen	-10.8914
ynch	-10.8919
ament	-10.8932
leg	-10.8944
▁interviewed	-10.895
ano	-10.897
▁broadcaster	-10.8994
▁argentine	-10.8995
▁sail	-10.9
▁cooper	-10.9001
how	-10.9005
▁garr	-10.9011
▁clay	-10.902
▁belt	-10.9023
mlin	-10.9028
▁achiev	-10.903
▁shari	-10.9039
ologist	-10.9048
▁prior	-10.9051
▁yoo	-10.9051
bol	-10.9069
▁metropoli	-10.9073
donald	-10.9089
▁hunting	-10.909
▁hills	-10.9105
izing	-10.911
structure	-10.9117
ulos	-10.9144
cap	-10.9164
▁shake	-10.917
▁rag	-10.9171
ssif	-10.9178
cation	-10.9182
orti	-10.9193
▁aviat	-10.9198
far	-10.9213
col	-10.9214
▁springs	-10.9217
▁habit	-10.9233
▁forget	-10.9238
nie	-10.924
▁mr	-10.9242
dai	-10.9243
▁killer	-10.9246
▁caucus	-10.9247
them	-10.9253
▁statistic	-10.9256
dna	-10.9264
▁danc	-10.9264
cious	-10.9279
▁ramo	-10.9284
▁generat	-10.93
▁fel	-10.9306
▁wil	-10.9324
▁challeng	-10.9328
power	-10.9339
women	-10.9339
brit	-10.9343
writ	-10.9345
▁commit	-10.935
▁digit	-10.9353
villa	-10.936
▁amounts	-10.9361
▁insurgen	-10.9365
tearn	-10.9367
▁chart	-10.9378
▁embrace	-10.9383
▁ci	-10.9383
▁component	-10.9386
▁hybrid	-10.9386
▁initiative	-10.9386
▁minimum	-10.9386
▁residence	-10.9386
▁scrambl	-10.9386
▁enormous	-10.9386
▁yankee	-10.9386
▁approximate	-10.9386
▁fruit	-10.9386
▁nichol	-10.9386
▁raquo	-10.9386
▁patriot	-10.9387
▁laute	-10.9387
▁gorilla	-10.9387
▁crater	-10.9387
arctic	-10.9387
▁balloon	-10.9387
▁bmw	-10.9387
▁application	-10.9387
▁interven	-10.9387
▁limb	-10.9387
▁fuji	-10.9387
▁blanket	-10.9387
▁pipeline	-10.9387
▁domain	-10.9387
▁enhanc	-10.9387
▁bedroom	-10.9387
▁oxy	-10.9387
▁psychologist	-10.9388
▁persist	-10.9388
▁foster	-10.9388
▁exceed	-10.9389
▁baseball	-10.9389
▁stuff	-10.939
lash	-10.939
▁santi	-10.9391
▁johan	-10.9391
▁loud	-10.9391
mumba	-10.9393
▁pronounce	-10.9394
▁kuznetsov	-10.9394
▁eric	-10.9395
otic	-10.9395
horta	-10.9399
fan	-10.94
▁absolutely	-10.9402
▁tighten	-10.9403
▁laugh	-10.9403
intend	-10.9404
▁jewel	-10.9404
▁observation	-10.9406
▁bolt	-10.9411
▁dug	-10.9411
▁kitt	-10.9411
▁fake	-10.9411
▁successor	-10.9414
▁emotional	-10.9415
▁gib	-10.9417
▁geo	-10.9419
sky	-10.9424
▁juan	-10.9429
turm	-10.9434
▁creation	-10.9434
▁adapt	-10.9434
▁pants	-10.9445
ison	-10.9446
▁buck	-10.9447
▁guil	-10.945
▁bath	-10.9453
▁tu	-10.9453
▁kell	-10.9456
▁territories	-10.9458
▁torn	-10.9463
luton	-10.9464
▁tale	-10.9469
▁alter	-10.9476
▁slam	-10.9491
▁nov	-10.9492
cast	-10.9503
▁laid	-10.9507
▁rear	-10.9507
▁challenger	-10.9509
iers	-10.9516
▁hunter	-10.9523
▁engage	-10.9532
▁predominan	-10.9537
henin	-10.9549
▁kir	-10.955
▁whal	-10.9558
iling	-10.957
▁politician	-10.9571
▁mort	-10.9587
▁vol	-10.9593
une	-10.9596
tak	-10.9602
▁yog	-10.9604
rut	-10.9617
rmed	-10.9623
ife	-10.9625
▁swor	-10.9628
▁bob	-10.9636
▁publisher	-10.9637
▁zu	-10.9643
▁programm	-10.9646
part	-10.9646
▁harris	-10.9653
▁lend	-10.9654
▁marin	-10.9666
angle	-10.967
claren	-10.9671
▁mistakes	-10.9672
▁polan	-10.9673
▁cro	-10.9674
lam	-10.968
▁lone	-10.9681
▁fisher	-10.9692
gent	-10.9694
hag	-10.9713
gis	-10.972
▁vessels	-10.9722
▁emb	-10.9726
than	-10.9728
▁impo	-10.9744
▁mag	-10.9754
awi	-10.9763
▁pregnanc	-10.9765
tzl	-10.9777
bra	-10.9778
liga	-10.9782
▁athen	-10.979
▁grant	-10.9801
ode	-10.9818
▁cab	-10.9819
▁nud	-10.9826
aqu	-10.983
gat	-10.9831
▁dispos	-10.9832
▁slid	-10.9837
▁swing	-10.9841
▁noon	-10.9865
▁accord	-10.9868
ose	-10.9878
▁aero	-10.9879
losi	-10.9885
gram	-10.9898
rous	-10.9936
mori	-10.9936
nke	-10.9939
▁advanc	-10.9953
▁posting	-10.9954
▁mrs	-10.9962
hook	-10.9963
mouth	-10.9963
atlant	-10.9964
children	-10.9964
government	-10.9964
berlin	-10.997
half	-10.9972
bound	-10.9972
davi	-10.9972
ore	-10.9973
titude	-10.9973
verish	-10.9982
▁provider	-10.9986
eight	-10.9992
▁swim	-10.9997
▁loya	-11.0003
▁connecti	-11.0004
▁virgin	-11.0004
▁confront	-11.0009
▁fundamental	-11.0009
▁kidnap	-11.0011
bourne	-11.0011
▁ambulance	-11.0011
▁congratulat	-11.0011
▁elaborate	-11.0011
▁intercept	-11.0011
▁motivat	-11.0011
▁norwegian	-11.0011
▁platform	-11.0011
▁precinct	-11.0011
▁principal	-11.0011
▁religion	-11.0011
▁shareholder	-11.0011
▁slaughter	-11.0011
▁sovereign	-11.0011
▁surpass	-11.0011
▁suspicion	-11.0011
▁decrease	-11.0011
▁harbor	-11.0011
▁hazard	-11.0011
▁jirga	-11.0011
▁kashmir	-11.0011
▁essential	-11.0011
▁indefinite	-11.0011
▁prestig	-11.0011
▁spaniard	-11.0011
▁propagand	-11.0012
▁depict	-11.0012
▁albanian	-11.0012
▁katrin	-11.0012
▁reinstate	-11.0012
▁infant	-11.0012
▁twist	-11.0012
▁gunshot	-11.0012
▁testify	-11.0012
▁mcdonald	-11.0012
▁moham	-11.0012
▁lyric	-11.0012
▁tornado	-11.0012
▁exposure	-11.0012
▁hammer	-11.0013
▁vital	-11.0013
▁attach	-11.0013
▁haiti	-11.0013
▁plent	-11.0013
▁dragg	-11.0014
▁shrine	-11.0014
sumption	-11.0014
▁adjust	-11.0015
▁confrontation	-11.0015
▁exclusive	-11.0015
▁pardon	-11.0016
▁polar	-11.0017
▁rico	-11.0017
▁painful	-11.0018
▁leap	-11.0019
▁combination	-11.0019
▁greenpeace	-11.0019
▁respective	-11.0022
▁duck	-11.0022
▁curb	-11.0023
▁spray	-11.0023
▁stick	-11.0024
▁lifetime	-11.0025
▁emphasiz	-11.0025
▁ports	-11.0026
▁wrapp	-11.0028
▁matsu	-11.0031
▁unfortunate	-11.0031
▁chole	-11.0041
▁chamber	-11.0048
▁pipe	-11.005
▁franco	-11.0051
▁nigeria	-11.0055
▁furni	-11.0058
▁contender	-11.0064
▁jam	-11.0065
▁deadli	-11.0067
▁afterward	-11.0071
▁extensi	-11.0074
▁nice	-11.0075
▁spur	-11.008
▁burst	-11.0083
their	-11.009
▁marc	-11.009
▁kre	-11.0096
ario	-11.0099
▁ramp	-11.0099
abao	-11.0101
▁promotion	-11.0102
▁zoe	-11.0106
tuck	-11.0108
▁instance	-11.0109
folk	-11.0112
▁hd	-11.012
skirt	-11.0124
creat	-11.0124
▁antibiotics	-11.0147
▁dealer	-11.016
ome	-11.0161
hen	-11.0164
▁plea	-11.0165
▁exhaust	-11.0187
enver	-11.0188
▁moral	-11.0198
▁secur	-11.0217
▁radi	-11.0232
▁chat	-11.0239
▁bang	-11.024
▁evacuate	-11.0244
▁nin	-11.0271
kanda	-11.0278
▁inmate	-11.0283
▁mul	-11.0292
▁meal	-11.03
wart	-11.0308
▁rein	-11.0308
erkel	-11.0329
▁files	-11.0331
six	-11.0338
▁shara	-11.0339
▁defending	-11.0341
▁obe	-11.0354
▁climber	-11.0355
oli	-11.036
▁decid	-11.0366
▁tube	-11.0367
try	-11.039
ioc	-11.0394
▁dak	-11.0395
▁encourag	-11.0402
▁grade	-11.0407
▁pad	-11.0414
▁measur	-11.0415
▁neil	-11.0422
▁ruler	-11.0428
▁cher	-11.0429
▁productiv	-11.0433
▁ward	-11.0445
vian	-11.0454
▁origin	-11.0465
▁hun	-11.0549
▁philip	-11.057
▁carpe	-11.0572
wan	-11.0579
glo	-11.0596
▁manage	-11.0608
▁confus	-11.0622
roy	-11.0623
kara	-11.0627
jiang	-11.063
zimbabwe	-11.063
load	-11.063
sarkozy	-11.063
▁tent	-11.063
thousand	-11.063
french	-11.063
▁wan	-11.0633
▁feb	-11.0639
chris	-11.0643
▁phil	-11.0654
▁roma	-11.0655
mura	-11.0656
▁prefer	-11.0658
▁slip	-11.066
unami	-11.0668
▁meteor	-11.0678
▁extinct	-11.0678
▁inaugurat	-11.0678
▁aquarium	-11.0678
▁concentrate	-11.0678
▁defect	-11.0678
▁enterprise	-11.0678
▁moderate	-11.0678
▁predecessor	-11.0678
▁revenge	-11.0678
▁supposed	-11.0678
▁transaction	-11.0678
▁triumph	-11.0678
▁breakfast	-11.0678
▁consistent	-11.0678
▁contaminat	-11.0678
▁descend	-11.0678
▁merchant	-11.0678
▁overthrow	-11.0678
▁psychiatr	-11.0678
▁tattoo	-11.0678
▁machete	-11.0678
▁staple	-11.0678
▁stronghold	-11.0678
▁chimp	-11.0678
▁bargain	-11.0678
▁scatter	-11.0678
▁crown	-11.0678
▁swift	-11.0678
▁paralyz	-11.0678
▁ultra	-11.0678
▁happi	-11.0678
▁regain	-11.0678
▁mitch	-11.0678
▁oath	-11.0678
▁diabet	-11.0678
▁admir	-11.0679
▁remind	-11.0679
▁smell	-11.0679
▁candidac	-11.0679
▁dedicat	-11.0679
▁boston	-11.0679
▁baggage	-11.0679
▁steep	-11.0679
▁hint	-11.068
▁advisor	-11.068
▁spectac	-11.068
▁kofi	-11.0681
▁mohammad	-11.0681
▁strategic	-11.0681
german	-11.0681
▁passport	-11.0682
▁legend	-11.0682
▁inquir	-11.0682
▁mortar	-11.0682
▁decree	-11.0683
▁download	-11.0684
▁harvest	-11.0685
▁tomato	-11.0685
▁tumbl	-11.0685
▁canoe	-11.0685
▁implication	-11.0685
▁breach	-11.0686
▁rebound	-11.0686
▁bride	-11.0686
▁squa	-11.0686
▁baham	-11.0686
▁happening	-11.0687
▁skeptic	-11.0688
▁musician	-11.0688
hasa	-11.0688
▁joseph	-11.0689
▁socialist	-11.0689
specifi	-11.0691
▁marry	-11.0691
▁silver	-11.0692
▁honey	-11.0692
▁background	-11.0693
▁tenor	-11.0693
▁guid	-11.0698
▁gross	-11.0698
▁islamist	-11.0704
▁kh	-11.0713
▁ripp	-11.0714
▁regret	-11.0717
▁alex	-11.0722
▁diya	-11.0723
▁carla	-11.0725
▁massacre	-11.0733
ition	-11.0738
▁cage	-11.074
▁defin	-11.0743
▁carac	-11.0745
▁hike	-11.0751
▁oh	-11.0753
▁tuck	-11.0759
▁ignor	-11.0763
▁lean	-11.0767
nov	-11.0773
▁berna	-11.0781
▁disclos	-11.0785
▁qua	-11.0789
ology	-11.079
▁mitt	-11.0796
▁suggestion	-11.0802
▁theme	-11.0803
eigh	-11.0808
ura	-11.0824
▁amo	-11.0831
kim	-11.0832
▁speculati	-11.0833
▁jane	-11.0834
▁shouted	-11.0835
▁supervis	-11.0838
▁sheet	-11.0838
▁taxi	-11.084
▁bio	-11.0845
kumar	-11.0852
▁patroll	-11.0853
▁treasure	-11.0853
▁preserve	-11.086
hop	-11.0871
oise	-11.0875
▁projection	-11.0878
▁rash	-11.0884
ebay	-11.0887
▁kissing	-11.09
▁lesson	-11.0907
itis	-11.0912
▁pur	-11.0927
ech	-11.0932
lab	-11.0935
kel	-11.0936
▁flo	-11.0948
▁nurse	-11.0949
▁employee	-11.0953
▁shak	-11.0953
▁tip	-11.0957
quet	-11.0961
furt	-11.0973
asia	-11.0978
▁ter	-11.0979
dam	-11.0987
▁canal	-11.0996
▁circle	-11.1007
gua	-11.1037
▁gro	-11.104
▁stressed	-11.107
bili	-11.1074
▁anne	-11.1108
▁pl	-11.1115
oren	-11.1138
▁conclude	-11.1142
▁cop	-11.1163
▁merg	-11.1182
fax	-11.1193
▁alleg	-11.1196
▁cel	-11.1203
rang	-11.1206
▁ash	-11.1227
berto	-11.1241
rob	-11.1244
▁proceed	-11.1248
colo	-11.1253
tress	-11.1254
▁endorse	-11.1261
forest	-11.1262
▁eco	-11.1269
▁entr	-11.1284
▁orchestra	-11.1287
▁hi	-11.1308
▁buyer	-11.1318
turn	-11.1329
sign	-11.1332
break	-11.1332
william	-11.1344
doctors	-11.1345
video	-11.1345
scientist	-11.1345
mosco	-11.1346
russia	-11.1348
shore	-11.1354
▁educat	-11.1359
short	-11.1359
▁monte	-11.1368
▁analys	-11.1369
aware	-11.1371
illa	-11.1377
▁populat	-11.1384
▁amaz	-11.1386
▁drunk	-11.1387
▁silence	-11.1388
ecutive	-11.1391
▁discriminat	-11.1392
▁interpret	-11.1392
▁retreat	-11.1392
▁affiliate	-11.1392
▁biofuel	-11.1392
▁blockbuster	-11.1392
▁catastroph	-11.1392
▁chocolate	-11.1392
▁dissolv	-11.1392
▁escort	-11.1392
▁expedition	-11.1392
▁froze	-11.1392
▁incredibl	-11.1392
▁mammal	-11.1392
▁migrant	-11.1392
▁motorcycle	-11.1392
▁persuade	-11.1392
▁pocket	-11.1392
▁proportion	-11.1392
▁sequence	-11.1392
▁substitute	-11.1392
▁surplus	-11.1392
▁swallow	-11.1392
▁unacceptabl	-11.1392
▁unanimous	-11.1392
▁competitor	-11.1392
▁regulate	-11.1392
▁unfair	-11.1392
▁bankruptc	-11.1392
▁fault	-11.1392
▁knife	-11.1392
▁midfielder	-11.1392
▁liberia	-11.1392
▁interfer	-11.1393
▁competitive	-11.1393
▁cousin	-11.1393
▁curfew	-11.1393
▁laborator	-11.1393
▁fundrais	-11.1393
▁retain	-11.1393
▁lamp	-11.1393
▁honest	-11.1393
▁awake	-11.1393
▁outcome	-11.1393
▁galax	-11.1393
▁budd	-11.1393
▁toddler	-11.1393
▁tumor	-11.1393
▁hatred	-11.1393
▁evil	-11.1393
▁repair	-11.1394
▁pension	-11.1394
▁landmark	-11.1394
▁wildfire	-11.1394
▁boast	-11.1395
▁propell	-11.1395
droe	-11.1395
▁eacute	-11.1396
▁shopper	-11.1396
▁collective	-11.1397
▁proliferat	-11.1398
▁dirt	-11.1398
▁gonzale	-11.1398
▁symptoms	-11.1398
▁interrogation	-11.1398
▁engagement	-11.1399
cursion	-11.1399
▁stunt	-11.1399
▁sink	-11.1399
▁stabb	-11.1399
▁appointment	-11.14
▁chill	-11.14
▁punch	-11.1402
mbled	-11.1403
mark	-11.1404
▁detective	-11.1404
▁overturn	-11.1404
▁liqu	-11.1404
▁inspection	-11.1405
▁ghan	-11.1405
elecommunication	-11.1405
▁conscious	-11.1406
▁picket	-11.1406
▁massage	-11.1408
▁mere	-11.1409
▁fif	-11.1411
▁snapp	-11.1412
▁apologize	-11.1412
▁mode	-11.1414
▁rig	-11.1415
▁emitt	-11.1416
▁passage	-11.1417
▁mumm	-11.142
▁subway	-11.1421
▁kabul	-11.1422
▁assign	-11.1425
▁explorer	-11.1426
▁smart	-11.1426
▁libyan	-11.1427
wear	-11.1431
▁shwe	-11.1432
libu	-11.1432
▁introduce	-11.1434
▁comet	-11.1435
▁pour	-11.1436
▁universal	-11.1442
▁doll	-11.1442
span	-11.1443
▁revis	-11.1444
▁surgeon	-11.1452
▁desire	-11.1454
▁cristian	-11.1454
▁opt	-11.1456
▁selection	-11.1464
dela	-11.1464
▁popp	-11.1465
▁cooperate	-11.1469
▁shattered	-11.1472
▁terra	-11.1474
▁passion	-11.1475
care	-11.1478
▁tries	-11.1483
made	-11.1483
ebras	-11.1485
▁chess	-11.1499
▁juli	-11.1516
▁supplier	-11.1522
▁joy	-11.1524
▁div	-11.153
▁eve	-11.1533
▁shr	-11.154
irna	-11.1542
thur	-11.1544
onga	-11.1549
▁salt	-11.1552
iband	-11.1587
▁hell	-11.1605
▁provok	-11.1618
▁rodd	-11.1637
▁indict	-11.1639
▁caffein	-11.1651
ndra	-11.1654
▁bra	-11.1655
▁mega	-11.166
▁granted	-11.1669
▁racial	-11.168
▁capabilit	-11.1685
▁smile	-11.1688
▁exporter	-11.1703
kat	-11.171
olo	-11.1721
▁bog	-11.1731
▁lur	-11.1755
alaba	-11.1765
hill	-11.1765
due	-11.1766
▁pu	-11.1772
▁tian	-11.178
▁graduate	-11.1791
ague	-11.1795
▁impos	-11.1807
▁importan	-11.1815
▁tap	-11.1823
tery	-11.1833
▁hut	-11.1834
gal	-11.1844
chu	-11.1845
▁harmon	-11.1847
▁robin	-11.1847
abba	-11.1853
ility	-11.1855
▁lash	-11.1862
wh	-11.1876
▁woo	-11.1879
place	-11.1879
▁occasion	-11.1893
latter	-11.19
usan	-11.191
hem	-11.1919
▁sao	-11.1924
▁arra	-11.1943
▁trek	-11.1956
kar	-11.1982
vac	-11.1995
▁eliminat	-11.2001
gt	-11.2008
jer	-11.2012
▁intensifi	-11.2012
▁cook	-11.2017
erial	-11.2024
▁confi	-11.2031
▁ev	-11.2032
▁boxe	-11.2035
▁exam	-11.205
▁bust	-11.2056
▁luck	-11.2062
▁franc	-11.2069
▁ob	-11.207
wind	-11.2088
pakistan	-11.2097
▁pla	-11.2104
▁transit	-11.2111
▁favorabl	-11.2111
sight	-11.2113
investigator	-11.2114
micros	-11.2114
researcher	-11.2114
secretar	-11.2114
securit	-11.2114
▁tut	-11.2115
▁compos	-11.2118
▁algeria	-11.2121
mel	-11.2121
israeli	-11.2124
ogge	-11.2127
▁maru	-11.2129
▁dive	-11.213
▁compli	-11.2143
lmand	-11.2145
▁possess	-11.2152
▁belgi	-11.2154
▁prohibit	-11.2154
▁scrap	-11.2154
▁dish	-11.2156
zo	-11.2157
▁consen	-11.2157
▁commerc	-11.2159
▁disturb	-11.216
mert	-11.216
▁charisma	-11.2161
▁depart	-11.2161
▁tribun	-11.2162
▁admission	-11.2162
▁commodit	-11.2162
▁compromise	-11.2162
▁desperate	-11.2162
▁diarrhea	-11.2162
▁equivalent	-11.2162
▁expense	-11.2162
▁homicide	-11.2162
▁magistrate	-11.2162
▁monument	-11.2162
▁nervous	-11.2162
▁phenomen	-11.2162
▁practical	-11.2162
▁prescription	-11.2162
▁subsequent	-11.2162
▁transmission	-11.2162
▁tremendous	-11.2162
▁bimbo	-11.2162
▁equipp	-11.2162
▁recount	-11.2162
▁sophisticat	-11.2162
▁widow	-11.2162
▁abortion	-11.2162
▁fossil	-11.2162
▁smurf	-11.2162
▁superior	-11.2162
▁yield	-11.2162
▁tayyi	-11.2162
▁telescope	-11.2162
▁croatia	-11.2162
▁wield	-11.2162
▁gravit	-11.2162
▁dwindl	-11.2162
▁flaw	-11.2162
▁outlaw	-11.2162
▁eager	-11.2162
▁fingerprint	-11.2162
▁restrain	-11.2162
▁golf	-11.2162
▁relocat	-11.2162
▁glen	-11.2162
▁mccart	-11.2162
▁sprawl	-11.2162
▁absent	-11.2162
▁medication	-11.2162
▁slogan	-11.2162
▁tactic	-11.2162
▁monaster	-11.2162
yongbyon	-11.2162
▁headache	-11.2162
▁autops	-11.2162
▁clue	-11.2163
▁micke	-11.2163
▁alarm	-11.2163
▁maoist	-11.2163
▁guideline	-11.2163
▁shank	-11.2164
▁bernard	-11.2164
▁amendment	-11.2164
▁nerve	-11.2165
▁instant	-11.2165
▁sensation	-11.2165
▁psychological	-11.2165
▁conservationist	-11.2165
▁extradit	-11.2166
▁installation	-11.2167
vinen	-11.2167
▁barks	-11.2167
▁dyna	-11.2167
▁strategist	-11.2167
▁acid	-11.2167
▁lugg	-11.2168
▁lafa	-11.2168
▁barely	-11.2168
elhof	-11.2168
▁respondent	-11.2169
▁injection	-11.2169
shmi	-11.2169
▁sicken	-11.2171
▁ancest	-11.2172
▁sensor	-11.2172
▁recommendation	-11.2172
▁opposit	-11.2172
▁thriv	-11.2173
▁hamid	-11.2175
▁brook	-11.2176
▁translat	-11.2177
▁keeper	-11.2177
▁robotic	-11.2179
▁facial	-11.218
▁visa	-11.218
▁guess	-11.2183
▁amazon	-11.2183
▁ethical	-11.2185
▁nano	-11.2186
manuel	-11.2187
▁pap	-11.2195
▁assured	-11.22
bow	-11.2205
▁zimbabwean	-11.2206
▁attitude	-11.2207
glio	-11.2207
▁jiang	-11.2221
▁hamper	-11.2222
▁cry	-11.2224
▁folk	-11.2229
▁gall	-11.2237
▁pure	-11.2238
▁castle	-11.2242
rosa	-11.225
▁stunning	-11.2252
▁cho	-11.2253
itive	-11.2255
▁vanco	-11.2268
▁demonstrat	-11.2271
▁parade	-11.2273
▁graz	-11.2274
▁bat	-11.2276
▁superb	-11.2279
chen	-11.2281
▁fog	-11.2282
laho	-11.2288
▁cooking	-11.2313
pate	-11.2324
▁menu	-11.2327
▁bron	-11.2328
▁gil	-11.233
cumbe	-11.2342
nova	-11.2346
▁lit	-11.2346
lem	-11.2348
refore	-11.2354
▁galla	-11.236
erous	-11.2365
▁yo	-11.2366
▁roar	-11.2367
▁dad	-11.2373
▁unres	-11.2382
imer	-11.2385
ulu	-11.2399
oming	-11.2399
▁nikol	-11.2415
▁pyr	-11.242
acute	-11.2435
▁bother	-11.2445
lena	-11.2445
▁coin	-11.2449
▁judg	-11.2453
▁organic	-11.2457
▁annually	-11.2461
▁prosecut	-11.2468
errill	-11.2499
▁installed	-11.2501
▁tai	-11.2512
▁wu	-11.2518
▁deliberate	-11.2535
ffer	-11.2538
▁dance	-11.2547
rena	-11.2565
awad	-11.2573
▁thu	-11.2625
▁lashe	-11.2643
▁swat	-11.2663
▁todd	-11.2679
▁roj	-11.2685
▁mcc	-11.2686
▁matte	-11.2701
▁nicole	-11.2718
nian	-11.2731
▁bol	-11.2739
▁ron	-11.2741
▁carv	-11.2768
▁rib	-11.2778
▁univers	-11.2796
bin	-11.2801
▁reviv	-11.2804
▁eta	-11.2805
▁kha	-11.2814
teria	-11.2836
▁clap	-11.2852
raul	-11.2856
▁nationalist	-11.2857
bell	-11.2865
dida	-11.2865
omi	-11.2869
▁fab	-11.2871
tenant	-11.2886
tada	-11.2897
eological	-11.2903
▁zo	-11.2923
via	-11.2926
media	-11.2937
fight	-11.2943
▁mild	-11.2944
front	-11.2946
profit	-11.2947
direct	-11.2947
twenty	-11.2948
ampa	-11.295
▁blai	-11.2954
▁libya	-11.2955
castle	-11.2955
pakistani	-11.2966
▁diploma	-11.2967
american	-11.2977
▁lak	-11.2981
oom	-11.2982
▁wel	-11.2983
▁columb	-11.2983
▁accomplish	-11.2991
kath	-11.2992
construct	-11.2995
▁hajj	-11.2995
▁rhetoric	-11.2995
▁cantaloupe	-11.2995
▁douglas	-11.2995
▁elephant	-11.2995
▁engulf	-11.2995
▁explanation	-11.2995
▁guatemala	-11.2995
▁irresponsibl	-11.2995
▁kangaroo	-11.2995
▁paraguay	-11.2995
▁satisfie	-11.2995
▁supplement	-11.2995
▁thymus	-11.2995
▁unemploy	-11.2995
▁kitchen	-11.2995
▁chapter	-11.2995
▁frog	-11.2995
▁reopen	-11.2995
▁troph	-11.2995
▁chronic	-11.2995
▁librar	-11.2995
▁squeez	-11.2995
▁drown	-11.2995
▁stamp	-11.2995
▁tribute	-11.2995
▁silent	-11.2995
▁fragil	-11.2995
▁nickname	-11.2995
▁eligib	-11.2995
▁sierra	-11.2995
▁definition	-11.2995
▁hydro	-11.2995
▁coroner	-11.2995
▁blind	-11.2995
▁saint	-11.2995
▁bruce	-11.2996
▁optimistic	-11.2996
▁aspect	-11.2996
▁divert	-11.2996
▁alfred	-11.2996
▁destination	-11.2996
▁ideolog	-11.2997
▁luft	-11.2997
▁beverage	-11.2997
▁fantas	-11.2997
▁talent	-11.2997
▁classroom	-11.2997
▁romantic	-11.2998
▁footprint	-11.2998
▁dictatorship	-11.2998
▁weakness	-11.2998
▁whistle	-11.2999
▁walter	-11.2999
▁anonymous	-11.3001
▁colonel	-11.3001
▁interaction	-11.3001
▁partnership	-11.3001
▁chadian	-11.3001
▁attractive	-11.3002
▁epic	-11.3002
▁examination	-11.3002
▁zebra	-11.3002
▁spell	-11.3003
▁magic	-11.3003
▁warehouse	-11.3004
fidel	-11.3005
▁burden	-11.3005
▁mosquito	-11.3006
▁disabl	-11.3006
▁belgian	-11.3007
▁kiev	-11.3007
▁basque	-11.3007
▁preach	-11.3007
▁kaka	-11.3008
▁dragon	-11.3009
▁blog	-11.301
▁unbea	-11.301
▁render	-11.3011
▁improvement	-11.3011
▁lieu	-11.3012
▁disable	-11.3012
italia	-11.3012
▁archive	-11.3013
▁buff	-11.3014
izu	-11.3014
▁motive	-11.3015
▁requirement	-11.3016
▁trill	-11.3017
▁update	-11.3018
▁fur	-11.3021
▁spurr	-11.3022
▁knight	-11.3022
station	-11.3024
pact	-11.303
▁cake	-11.3032
▁hometown	-11.3037
ntao	-11.3038
▁commuter	-11.3047
▁survival	-11.3048
▁attraction	-11.3055
▁lucian	-11.3056
▁hacker	-11.3057
▁stripp	-11.3058
robert	-11.3061
▁enthusiast	-11.3064
jak	-11.3066
▁solan	-11.3067
▁melt	-11.307
▁spice	-11.3073
▁accompany	-11.308
ida	-11.3081
nmark	-11.3081
▁layer	-11.3083
ecca	-11.3089
▁universit	-11.3098
enos	-11.3098
▁academic	-11.31
▁skipp	-11.3102
luster	-11.3103
▁vince	-11.3105
▁corn	-11.3111
▁cair	-11.3114
lese	-11.3119
▁dome	-11.312
▁orchestrat	-11.312
▁pois	-11.3135
▁spar	-11.3136
▁please	-11.3143
core	-11.3145
▁dig	-11.3148
▁kara	-11.3152
▁eliminate	-11.3173
▁occupie	-11.3175
graph	-11.3181
▁observe	-11.3181
▁ub	-11.3182
▁statistical	-11.3186
▁revive	-11.3194
▁partial	-11.3195
▁collid	-11.3203
▁ferry	-11.3211
▁alba	-11.3211
▁developer	-11.3216
▁divide	-11.3216
▁mour	-11.322
▁zan	-11.3221
rill	-11.3228
pont	-11.3229
▁lover	-11.3239
▁fred	-11.3251
▁plott	-11.3254
▁dong	-11.3262
▁nose	-11.3266
ius	-11.3272
▁nori	-11.3281
plane	-11.3292
vacu	-11.3295
▁dependenc	-11.3311
▁beak	-11.332
jok	-11.3322
▁symbolic	-11.3329
unny	-11.3332
▁hub	-11.3332
mega	-11.3346
▁dop	-11.3378
▁donate	-11.3391
▁belly	-11.3398
▁poster	-11.3405
apping	-11.3405
▁dot	-11.341
ilateral	-11.3433
▁praise	-11.345
rump	-11.3481
▁ib	-11.3481
och	-11.3493
▁emerg	-11.3499
roof	-11.3518
▁premiere	-11.3521
▁tension	-11.3523
▁fift	-11.3524
nice	-11.3533
▁venture	-11.3544
▁nazi	-11.3544
word	-11.357
▁eas	-11.3575
▁wag	-11.3588
▁luc	-11.3595
▁fal	-11.3611
call	-11.3614
▁raz	-11.3619
▁deb	-11.3626
▁allen	-11.3641
izer	-11.3646
ilia	-11.3651
▁rott	-11.3654
reze	-11.3662
▁smoker	-11.3669
emon	-11.367
▁gunn	-11.368
agon	-11.3689
▁subsidi	-11.373
oding	-11.3734
zawa	-11.3736
▁resemble	-11.3736
▁hire	-11.3742
ood	-11.3758
odor	-11.3764
▁cp	-11.3766
llor	-11.3767
▁rid	-11.3795
hiro	-11.3796
▁gran	-11.3807
morga	-11.3832
tract	-11.3838
high	-11.3839
▁hal	-11.3841
▁uncon	-11.3842
▁doubl	-11.3853
point	-11.3854
madrid	-11.3856
witnesses	-11.3856
decided	-11.3856
piece	-11.3856
defense	-11.3856
paul	-11.3857
group	-11.3857
smith	-11.3857
▁eva	-11.3859
local	-11.386
appropriate	-11.3865
guard	-11.3865
recent	-11.3866
rescuer	-11.3868
tech	-11.3868
▁reg	-11.3868
▁invade	-11.3872
lift	-11.3873
▁innocen	-11.3877
workers	-11.3884
▁refer	-11.3886
▁counsel	-11.389
▁volcan	-11.3891
ditional	-11.3896
▁contra	-11.3897
▁denucleariz	-11.3904
▁accommodate	-11.3904
▁administrator	-11.3904
▁applau	-11.3904
▁bizarre	-11.3904
▁caribbean	-11.3904
▁concession	-11.3904
▁database	-11.3904
▁episode	-11.3904
▁fractur	-11.3904
▁gabriel	-11.3904
▁hormone	-11.3904
▁juvenile	-11.3904
▁kilogram	-11.3904
▁neutral	-11.3904
▁okinawa	-11.3904
▁rockefeller	-11.3904
▁scuffle	-11.3904
▁spectators	-11.3904
▁technician	-11.3904
▁buzz	-11.3904
▁bystander	-11.3904
▁himalaya	-11.3904
▁ignit	-11.3904
▁reconstruction	-11.3904
▁ritual	-11.3904
▁sherpa	-11.3904
▁sumatra	-11.3904
▁unleash	-11.3904
▁cancellation	-11.3904
▁diminish	-11.3904
▁exxon	-11.3904
▁gradual	-11.3904
▁stirr	-11.3904
▁vomit	-11.3904
▁precise	-11.3904
▁armenian	-11.3904
▁barbara	-11.3904
▁basket	-11.3904
▁gesture	-11.3904
▁davy	-11.3904
▁depth	-11.3904
▁ceiling	-11.3904
▁overdose	-11.3904
▁logistic	-11.3904
▁reign	-11.3904
▁craz	-11.3904
▁echo	-11.3904
fraction	-11.3904
▁excuse	-11.3904
▁cecil	-11.3904
▁conceal	-11.3904
▁erect	-11.3904
▁inhabit	-11.3904
▁christophe	-11.3904
▁underscore	-11.3904
▁disarm	-11.3904
▁supermarket	-11.3904
▁uncomm	-11.3904
▁draft	-11.3905
▁boulder	-11.3905
▁reception	-11.3905
▁uprising	-11.3905
▁drain	-11.3905
▁analyz	-11.3905
▁defus	-11.3905
▁convey	-11.3905
▁scholar	-11.3905
llery	-11.3905
▁provision	-11.3905
▁feather	-11.3905
caretaker	-11.3905
▁breast	-11.3905
▁vegetable	-11.3905
inde	-11.3906
▁blessing	-11.3906
▁random	-11.3906
▁cedar	-11.3906
▁muq	-11.3906
▁blanc	-11.3907
▁trench	-11.3908
▁filmmaker	-11.3908
▁loot	-11.3909
knox	-11.3909
▁grim	-11.3909
▁shelve	-11.3909
▁haul	-11.3909
▁cream	-11.391
▁shutdown	-11.391
▁circulat	-11.391
▁ficti	-11.391
▁elevator	-11.391
▁brick	-11.3911
solicit	-11.3911
termination	-11.3911
▁flick	-11.3913
▁format	-11.3914
▁monet	-11.3914
▁terrible	-11.3915
▁achievement	-11.3915
▁libi	-11.3915
▁coastline	-11.3915
▁consultant	-11.3916
▁torrent	-11.3916
▁operative	-11.3916
▁parole	-11.3917
▁youngster	-11.3918
▁mediator	-11.3919
▁continuous	-11.3919
▁steer	-11.392
▁corre	-11.3921
▁personalit	-11.3921
▁deutsch	-11.3921
▁oak	-11.3923
ritis	-11.3924
▁suppress	-11.3928
▁flare	-11.3928
▁jean	-11.3929
▁deem	-11.3929
▁impression	-11.393
▁instruction	-11.393
▁bleed	-11.3932
▁freeze	-11.3933
▁extension	-11.3935
▁communicate	-11.3937
▁ferg	-11.3941
▁mob	-11.3943
▁jung	-11.3943
▁dodge	-11.3944
▁measurement	-11.3944
liberation	-11.3945
▁nick	-11.3946
▁myster	-11.3947
▁hate	-11.3947
ronto	-11.3949
▁consent	-11.3954
▁useful	-11.3955
▁semi	-11.3955
▁eurosta	-11.3956
▁dire	-11.3958
▁garb	-11.3959
▁capitalist	-11.3961
▁hidd	-11.3965
ipi	-11.3967
pulsi	-11.3967
▁consideration	-11.3972
lks	-11.3974
comprehensi	-11.3975
▁melan	-11.3975
▁jess	-11.3976
▁keen	-11.3976
are	-11.3983
tog	-11.3984
▁fabric	-11.3986
pov	-11.3988
twel	-11.3994
etic	-11.3995
▁armor	-11.3999
cotte	-11.4
▁stream	-11.4002
▁pond	-11.4004
▁defender	-11.4011
▁schult	-11.4014
report	-11.4016
bbie	-11.4018
▁kg	-11.4041
▁outline	-11.4063
▁lender	-11.4066
▁pira	-11.4066
▁captive	-11.407
▁fernando	-11.4077
▁gue	-11.4078
▁blitz	-11.4088
▁prostitute	-11.4099
mill	-11.4117
teen	-11.4122
▁retaliat	-11.4122
▁disk	-11.4125
▁matt	-11.4125
mail	-11.4125
▁sara	-11.4128
▁separat	-11.4142
▁georgian	-11.4143
▁tail	-11.4145
macho	-11.4161
▁slide	-11.4177
▁polit	-11.4185
▁cartel	-11.4187
fish	-11.4187
▁clippe	-11.4188
▁jp	-11.419
soon	-11.4197
azar	-11.4213
▁cleaner	-11.4215
▁qass	-11.4217
▁fuse	-11.4218
afford	-11.422
unch	-11.4222
▁zealander	-11.4227
▁gaz	-11.4235
▁ju	-11.424
▁biolog	-11.4242
▁impressi	-11.4251
▁debat	-11.4252
▁jin	-11.4276
▁intimidat	-11.4288
▁teach	-11.429
nym	-11.4307
mmy	-11.4314
person	-11.4314
▁relieve	-11.4317
uan	-11.432
▁ranger	-11.4355
▁guin	-11.4357
▁lexi	-11.4358
▁vel	-11.4383
▁pul	-11.4383
egger	-11.4388
sphe	-11.4393
▁qur	-11.4404
official	-11.4411
uca	-11.4434
inent	-11.4438
▁alien	-11.4462
run	-11.4468
orry	-11.447
plan	-11.4474
▁abilit	-11.4484
▁fare	-11.4493
hart	-11.4504
position	-11.4518
▁dim	-11.4524
xvi	-11.4527
immer	-11.4531
▁comb	-11.4547
▁ivan	-11.456
gie	-11.4588
▁clip	-11.461
▁java	-11.4625
uters	-11.4647
lov	-11.4656
uti	-11.4657
▁commun	-11.4674
▁repeat	-11.4676
vin	-11.468
▁kath	-11.4689
ike	-11.4689
▁arena	-11.469
pur	-11.4696
▁shout	-11.4705
▁juni	-11.4705
chines	-11.4717
▁designer	-11.4718
tsu	-11.4723
ficial	-11.4724
▁julie	-11.4734
▁uncertain	-11.4763
▁recep	-11.4774
▁ignore	-11.4776
▁pit	-11.4783
hor	-11.4791
▁denie	-11.4796
▁collaborat	-11.4813
▁contend	-11.482
lange	-11.4823
mil	-11.4827
▁opera	-11.4833
chief	-11.4845
▁choos	-11.4847
▁dignit	-11.4854
▁emotion	-11.4855
▁jav	-11.4855
brown	-11.4856
current	-11.4856
spoke	-11.4857
analyst	-11.4857
simpson	-11.4858
zemi	-11.4859
unlike	-11.486
▁stil	-11.4862
frank	-11.4864
ahn	-11.4864
zel	-11.4867
▁permit	-11.4867
fox	-11.4869
▁strange	-11.4872
▁evacu	-11.4872
cuba	-11.4874
▁inspect	-11.4875
turk	-11.4877
scribe	-11.4877
▁observat	-11.4878
guil	-11.488
teau	-11.4881
▁qualifi	-11.4882
▁hack	-11.4884
▁samar	-11.4886
▁comput	-11.4888
will	-11.4892
ouf	-11.4893
▁grip	-11.4896
▁addict	-11.4896
jum	-11.4897
▁colomb	-11.4901
▁roug	-11.4902
▁vegeta	-11.4903
▁valen	-11.4903
▁silv	-11.4904
▁psycho	-11.4904
▁acquitt	-11.4904
▁cathedral	-11.4904
▁cosmonaut	-11.4904
▁disapprov	-11.4904
▁djamena	-11.4904
▁fraudulent	-11.4904
▁glimpse	-11.4904
▁netscape	-11.4904
▁nutrient	-11.4904
▁obstacle	-11.4904
▁paparazz	-11.4904
▁pediatric	-11.4904
▁phillip	-11.4904
▁pornograph	-11.4904
▁smooth	-11.4904
▁sufficient	-11.4904
▁temblor	-11.4904
▁vaccinat	-11.4904
▁constructive	-11.4904
▁deplor	-11.4904
▁discount	-11.4904
▁humiliat	-11.4904
▁mastermind	-11.4904
▁reputation	-11.4904
▁scream	-11.4904
▁stockpile	-11.4904
▁unexpected	-11.4904
▁voluntar	-11.4904
▁bounce	-11.4904
▁corresponden	-11.4904
▁chemist	-11.4904
▁crane	-11.4904
▁sibling	-11.4904
▁clerk	-11.4904
▁miserable	-11.4904
▁column	-11.4904
▁scheme	-11.4904
▁spawn	-11.4904
▁zawah	-11.4904
▁restart	-11.4904
▁morale	-11.4904
▁zhang	-11.4904
ssenger	-11.4904
▁calorie	-11.4904
invitation	-11.4904
▁nelson	-11.4905
▁glid	-11.4905
▁mysterious	-11.4905
▁shrink	-11.4905
▁fabio	-11.4905
▁blogger	-11.4905
▁charr	-11.4905
▁epidemic	-11.4905
▁martyr	-11.4905
▁impass	-11.4905
▁euthan	-11.4906
▁synd	-11.4906
▁retirement	-11.4906
▁serge	-11.4906
▁vista	-11.4907
▁sugar	-11.4907
▁biologist	-11.4907
▁fuku	-11.4907
▁decorat	-11.4907
▁wander	-11.4907
▁candle	-11.4908
▁landfall	-11.4908
▁bump	-11.4908
▁airplane	-11.4908
▁devil	-11.4909
▁pelo	-11.491
▁floren	-11.491
▁assertion	-11.491
▁desk	-11.4911
▁utilit	-11.4911
rbala	-11.4912
▁shotgun	-11.4912
▁privilege	-11.4912
dolf	-11.4913
▁archaeolog	-11.4913
▁natal	-11.4913
▁objective	-11.4913
▁munic	-11.4914
▁archaeologist	-11.4914
▁alvar	-11.4915
▁heighten	-11.4915
▁colonial	-11.4915
▁pegg	-11.4917
▁kerch	-11.4918
▁borrow	-11.492
▁generator	-11.492
ylan	-11.4922
▁courthouse	-11.4924
▁hover	-11.4924
▁bias	-11.4924
hansa	-11.4925
▁alcoholic	-11.4926
▁gill	-11.4927
▁settl	-11.4927
gerald	-11.4928
▁emerge	-11.4928
arro	-11.4929
▁cliff	-11.4929
▁electro	-11.4929
▁aborigin	-11.493
▁contribution	-11.4931
▁inventor	-11.4933
▁stern	-11.4933
▁negro	-11.4933
▁farmland	-11.4933
▁milk	-11.4933
upper	-11.4934
▁grace	-11.4935
▁refiner	-11.4935
▁simon	-11.4936
▁jup	-11.4938
juan	-11.494
rimp	-11.4942
▁creator	-11.4944
▁barak	-11.4946
▁bike	-11.4946
▁dave	-11.4947
▁rental	-11.4949
▁moore	-11.4949
▁thirt	-11.495
▁fold	-11.495
▁rajas	-11.4951
▁hallow	-11.4951
▁kang	-11.4954
rupt	-11.4955
▁finger	-11.4956
▁ufo	-11.4956
▁henri	-11.4957
▁belov	-11.4957
▁deepen	-11.4957
▁unrel	-11.4961
▁plagu	-11.4961
▁prodi	-11.4963
▁panic	-11.4966
▁tsa	-11.4971
▁pride	-11.4976
▁slope	-11.4977
▁tipp	-11.4978
▁freez	-11.4982
▁pastor	-11.4983
▁outlet	-11.4984
▁thron	-11.4986
▁hano	-11.4986
▁logi	-11.4987
▁warship	-11.4987
asian	-11.4991
mur	-11.4994
udge	-11.4996
▁schu	-11.5
▁hyper	-11.5004
▁wayne	-11.5006
▁austrian	-11.5009
clusive	-11.501
▁hatch	-11.5013
▁wheat	-11.5024
▁rider	-11.5025
▁procession	-11.5027
▁keit	-11.5028
▁zi	-11.5034
▁bett	-11.5035
▁publication	-11.5038
▁mandat	-11.5039
case	-11.5041
▁choi	-11.5051
▁distan	-11.5054
▁fisc	-11.5056
▁suv	-11.506
▁lucky	-11.5067
▁neal	-11.5069
▁cycle	-11.507
▁teaching	-11.5073
ltz	-11.5081
▁steadi	-11.5087
ograph	-11.5088
▁musa	-11.5104
▁quantit	-11.5112
▁circu	-11.5116
city	-11.5121
niel	-11.5132
▁slot	-11.5133
▁laser	-11.5134
lley	-11.5136
▁broker	-11.5146
demeano	-11.5147
▁solo	-11.5157
awar	-11.5159
▁lop	-11.5174
mela	-11.5193
▁romania	-11.5195
▁trainer	-11.52
▁preserv	-11.5202
▁capp	-11.5202
▁pile	-11.5205
▁holder	-11.5211
▁memorab	-11.5214
▁outage	-11.522
▁container	-11.5225
pho	-11.5227
▁tang	-11.5231
▁zin	-11.5233
stitution	-11.5235
▁marie	-11.524
▁chased	-11.5241
silic	-11.5256
▁pil	-11.5257
▁coal	-11.5267
iena	-11.5287
▁lauren	-11.5305
xel	-11.5314
ivo	-11.532
lamin	-11.5341
▁nest	-11.5357
▁raj	-11.5361
▁employer	-11.5362
▁bench	-11.5369
▁lag	-11.5376
▁acquire	-11.538
▁laur	-11.5405
▁dose	-11.5408
yuz	-11.5416
▁ensur	-11.5431
▁bern	-11.544
▁mona	-11.5444
▁triple	-11.5449
ears	-11.546
▁dippe	-11.5462
▁xi	-11.5488
along	-11.5496
▁cac	-11.5496
▁camero	-11.5497
▁dell	-11.5502
▁appreciate	-11.5544
▁publiciz	-11.5571
▁observ	-11.5575
idi	-11.5595
▁tik	-11.5602
amine	-11.5603
▁vene	-11.563
raig	-11.5638
rash	-11.5665
▁woode	-11.5682
oke	-11.5686
trash	-11.5698
▁jaz	-11.5702
▁maha	-11.571
▁bran	-11.5714
ieu	-11.5715
pei	-11.5764
lick	-11.5766
gus	-11.578
▁rug	-11.5793
▁bobb	-11.58
▁architect	-11.5841
▁seren	-11.5847
bouc	-11.5868
▁overwhelm	-11.5869
▁mandate	-11.5876
▁exten	-11.588
▁roth	-11.5883
ussi	-11.5891
dominant	-11.5895
enza	-11.5896
▁accompan	-11.5902
ork	-11.5903
apped	-11.591
▁holm	-11.5913
humi	-11.5914
america	-11.5927
ternal	-11.5936
▁niger	-11.594
mitag	-11.5954
▁substanti	-11.5961
thirt	-11.5966
violen	-11.5967
hallow	-11.5967
michael	-11.5967
▁sampl	-11.5967
political	-11.5968
iraqi	-11.5968
model	-11.5968
national	-11.5969
watch	-11.5969
buil	-11.5971
hurt	-11.5972
richard	-11.5973
▁instruct	-11.5974
spear	-11.5975
scale	-11.5977
safe	-11.5979
further	-11.5981
▁depos	-11.5983
▁refin	-11.5983
bank	-11.5984
▁grat	-11.5986
life	-11.599
neil	-11.599
onica	-11.599
phone	-11.599
few	-11.599
llen	-11.5995
▁administrati	-11.5996
trust	-11.5997
▁recogni	-11.6008
▁psycholog	-11.6008
▁elevat	-11.6009
▁orphan	-11.6013
▁differ	-11.6015
▁schwarz	-11.6015
nscript	-11.6015
▁absorb	-11.6015
▁infiltrat	-11.6015
▁instrument	-11.6015
▁rehabilitati	-11.6015
▁reprocess	-11.6015
▁sympath	-11.6015
bicycle	-11.6015
▁accelerate	-11.6015
▁anorexi	-11.6015
▁avenue	-11.6015
▁bahrain	-11.6015
▁battalion	-11.6015
▁bolivar	-11.6015
▁concentration	-11.6015
▁constitute	-11.6015
▁curtail	-11.6015
▁deadlock	-11.6015
▁decisive	-11.6015
▁evangelical	-11.6015
▁evolve	-11.6015
▁excellent	-11.6015
▁freight	-11.6015
▁grandfather	-11.6015
▁horror	-11.6015
▁inflict	-11.6015
▁ingredient	-11.6015
▁insufficient	-11.6015
▁integrate	-11.6015
▁jacque	-11.6015
▁jaguar	-11.6015
▁kazakh	-11.6015
▁mammoth	-11.6015
▁rhino	-11.6015
▁sacrifice	-11.6015
▁shepherd	-11.6015
▁taxpayer	-11.6015
▁automatic	-11.6015
▁beautiful	-11.6015
▁cautious	-11.6015
▁dimension	-11.6015
▁disciplin	-11.6015
▁franchise	-11.6015
▁frighten	-11.6015
▁mutual	-11.6015
▁simultaneous	-11.6015
▁curtain	-11.6015
▁devot	-11.6015
▁genuine	-11.6015
▁ghaz	-11.6015
▁implant	-11.6015
▁ounce	-11.6015
▁streak	-11.6015
▁banteng	-11.6015
▁collar	-11.6015
▁throat	-11.6015
▁animated	-11.6015
▁crystal	-11.6015
▁spiel	-11.6015
▁enact	-11.6015
▁steroid	-11.6015
▁volume	-11.6015
▁bolivia	-11.6015
▁rehab	-11.6015
▁incentive	-11.6015
▁brush	-11.6015
▁cinema	-11.6015
▁outpost	-11.6015
▁crippl	-11.6015
▁osbourne	-11.6015
▁perceiv	-11.6015
▁huddl	-11.6015
lroo	-11.6015
▁venus	-11.6016
▁meteorologist	-11.6016
▁orient	-11.6016
▁grammy	-11.6016
▁lodge	-11.6016
▁outfit	-11.6016
▁abnormal	-11.6016
▁suitcase	-11.6016
▁swarm	-11.6016
▁owen	-11.6016
▁cesar	-11.6016
▁plug	-11.6016
▁sulli	-11.6016
▁disgu	-11.6016
▁stricke	-11.6016
▁physician	-11.6016
▁strait	-11.6016
ravag	-11.6016
▁nightclub	-11.6016
▁steam	-11.6016
▁thorough	-11.6016
▁ailment	-11.6016
▁copper	-11.6016
▁compris	-11.6016
▁lynn	-11.6016
▁navigat	-11.6016
▁derail	-11.6016
▁intervention	-11.6016
▁charismatic	-11.6016
▁jefferson	-11.6017
▁sermon	-11.6017
▁profound	-11.6017
▁forbidd	-11.6017
▁bachel	-11.6017
▁monster	-11.6017
▁horrifi	-11.6017
▁canister	-11.6017
▁indoor	-11.6017
▁trademark	-11.6017
▁glori	-11.6017
▁mikh	-11.6017
▁disagreement	-11.6018
▁conserv	-11.6018
▁gallery	-11.6018
▁bund	-11.6018
▁liais	-11.6018
▁contentious	-11.6019
▁grin	-11.6019
▁guang	-11.6019
▁intent	-11.6019
▁forensic	-11.6019
▁layoff	-11.6019
▁scout	-11.6019
▁fundamentalist	-11.6019
▁harper	-11.6019
▁drift	-11.6019
▁prolong	-11.602
▁sheep	-11.602
▁ginger	-11.6021
▁jihadist	-11.6021
▁cramp	-11.6021
▁avert	-11.6021
▁glow	-11.6021
rink	-11.6022
▁thwart	-11.6022
bishop	-11.6022
▁chore	-11.6022
▁fahr	-11.6022
▁lucas	-11.6022
▁intensive	-11.6023
▁yush	-11.6024
▁hawa	-11.6024
▁woke	-11.6025
▁doom	-11.6025
▁drill	-11.6025
▁jesu	-11.6025
▁swam	-11.6026
chenk	-11.6026
▁scrapp	-11.6026
▁costume	-11.6027
▁benze	-11.6027
▁scientolog	-11.6028
choa	-11.6029
▁transparent	-11.6031
▁yasu	-11.6031
▁roam	-11.6031
▁cordon	-11.6031
▁arson	-11.6032
▁brig	-11.6032
▁muha	-11.6034
▁worship	-11.6034
▁windsor	-11.6035
▁meyer	-11.6036
▁setback	-11.6036
▁insect	-11.6037
▁advocate	-11.6037
▁homo	-11.6038
▁affi	-11.6038
▁coward	-11.6038
▁keat	-11.6039
▁thigh	-11.6041
▁rattl	-11.6041
▁adequate	-11.6042
▁maure	-11.6042
human	-11.6043
▁stemm	-11.6043
▁modest	-11.6043
▁fence	-11.6044
▁poison	-11.6044
orenti	-11.6046
▁disperse	-11.6046
▁broadb	-11.6048
uver	-11.6051
▁cox	-11.6052
beat	-11.6056
▁moai	-11.6062
▁sample	-11.6066
▁contestant	-11.6067
▁liu	-11.6071
▁baton	-11.6071
oir	-11.6073
cheema	-11.6076
▁foul	-11.6077
▁lip	-11.608
▁digg	-11.608
▁amus	-11.6082
▁swo	-11.6083
▁airship	-11.6085
▁twenty	-11.6087
▁dismantle	-11.6087
▁capit	-11.6087
▁leone	-11.6089
moto	-11.609
▁insur	-11.6091
endar	-11.6093
▁taka	-11.6101
▁beatle	-11.6102
▁maid	-11.6103
hmer	-11.6105
bola	-11.6105
▁slavi	-11.611
▁arise	-11.611
▁hook	-11.6113
▁pont	-11.6113
fael	-11.6116
▁poul	-11.6116
▁joan	-11.6122
▁visitation	-11.6123
▁feat	-11.6124
▁biti	-11.6125
rmal	-11.6128
▁enable	-11.6129
niste	-11.6134
▁expression	-11.6136
▁bash	-11.6138
nean	-11.6149
▁gust	-11.6156
▁cove	-11.6156
▁glad	-11.6176
▁whipp	-11.618
▁uncertaint	-11.618
▁parish	-11.6194
▁confine	-11.6195
▁pesh	-11.6198
ysse	-11.6199
▁zhu	-11.62
▁emil	-11.6205
illon	-11.6212
loha	-11.6217
vani	-11.6222
▁clemen	-11.6228
pleasure	-11.6238
▁stabilize	-11.6246
etz	-11.6261
▁presid	-11.6263
▁hernan	-11.6268
eep	-11.6271
▁baa	-11.6291
▁downsiz	-11.6314
▁considerabl	-11.6334
comb	-11.6339
▁mario	-11.6351
berger	-11.6351
▁arl	-11.636
▁reverse	-11.6361
▁bever	-11.6393
hendr	-11.64
▁prostitut	-11.6417
▁occasional	-11.6424
▁cooperat	-11.6424
▁waterway	-11.6428
bhut	-11.6434
rocker	-11.645
lahor	-11.6498
cna	-11.6543
late	-11.6578
▁voc	-11.6584
▁graduat	-11.6602
spective	-11.6618
crat	-11.662
▁deliberat	-11.6624
prom	-11.6627
tified	-11.663
pick	-11.6652
▁ratio	-11.6662
▁commemorate	-11.6664
mple	-11.6667
nfl	-11.6678
▁lega	-11.6682
▁tenn	-11.6683
▁metro	-11.6686
▁reunite	-11.6695
ieve	-11.6719
nstop	-11.6721
cube	-11.6749
▁prosecuti	-11.6758
▁capt	-11.6761
▁impress	-11.6766
▁emi	-11.6768
▁olive	-11.6785
▁retrieve	-11.6786
cade	-11.682
rank	-11.6822
mount	-11.6824
▁stud	-11.6829
alban	-11.6874
▁jaw	-11.6875
▁optim	-11.6889
▁repli	-11.6895
lav	-11.6896
▁wilder	-11.69
oursel	-11.6904
gaz	-11.6932
fia	-11.6967
reva	-11.6975
▁vent	-11.7007
asser	-11.701
▁mono	-11.7019
gna	-11.7037
nati	-11.7042
▁repressi	-11.707
▁tran	-11.7076
avaro	-11.7079
▁murr	-11.7106
▁messi	-11.7109
▁math	-11.7112
▁stunn	-11.7116
fran	-11.7136
▁kun	-11.714
stance	-11.7141
asso	-11.7145
▁desir	-11.7158
▁repri	-11.7168
anga	-11.7169
gome	-11.718
share	-11.7185
▁topple	-11.7197
israel	-11.7201
▁portra	-11.7204
certain	-11.7211
▁assure	-11.7214
▁invent	-11.7217
respond	-11.7217
block	-11.7217
prosecutor	-11.7217
blood	-11.7217
prince	-11.7217
follow	-11.7217
previous	-11.7217
develop	-11.7218
dozen	-11.7218
white	-11.7218
second	-11.7218
travel	-11.7218
thanks	-11.7218
opposition	-11.7218
initial	-11.7218
kabul	-11.7219
morning	-11.7219
bird	-11.7219
temp	-11.7221
▁deport	-11.7222
european	-11.7223
hillary	-11.7224
peter	-11.7226
▁ethic	-11.7227
federal	-11.7231
leban	-11.7234
▁extremis	-11.7238
▁snipe	-11.7238
▁drag	-11.7241
fill	-11.7245
gina	-11.7245
chica	-11.7247
usnes	-11.7249
▁oct	-11.7249
talk	-11.7251
▁inject	-11.7253
mug	-11.7258
caust	-11.7263
aggressi	-11.7265
▁cultivat	-11.7265
▁manipulat	-11.7265
▁accumulate	-11.7265
▁aggravate	-11.7265
▁athletic	-11.7265
▁benjamin	-11.7265
▁brilliant	-11.7265
▁encrypt	-11.7265
▁erratic	-11.7265
▁gossip	-11.7265
▁hispanic	-11.7265
▁juventu	-11.7265
▁liechtenstein	-11.7265
▁marathon	-11.7265
▁mogul	-11.7265
▁motorbike	-11.7265
▁negligen	-11.7265
▁parachute	-11.7265
▁predator	-11.7265
▁proclaim	-11.7265
▁provocation	-11.7265
▁scenario	-11.7265
▁solving	-11.7265
▁unpopular	-11.7265
▁valuable	-11.7265
▁wobble	-11.7265
▁bubble	-11.7265
▁compassion	-11.7265
▁hondura	-11.7265
▁knut	-11.7265
▁overhaul	-11.7265
▁overweight	-11.7265
▁sketch	-11.7265
▁vault	-11.7265
▁demilitariz	-11.7265
▁gartner	-11.7265
▁relevan	-11.7265
▁crunch	-11.7265
▁pioneer	-11.7265
▁purported	-11.7265
▁stereo	-11.7265
▁shadow	-11.7265
▁maneuver	-11.7265
▁pneum	-11.7265
▁companion	-11.7265
▁robust	-11.7265
▁valid	-11.7265
▁pedophil	-11.7265
▁depriv	-11.7265
▁gauge	-11.7265
▁intestin	-11.7265
▁crab	-11.7265
▁endeavo	-11.7265
▁premise	-11.7265
▁motel	-11.7265
▁allocate	-11.7265
▁casino	-11.7265
▁cjd	-11.7265
▁leather	-11.7265
▁counterterroris	-11.7265
▁storage	-11.7265
▁consolidat	-11.7265
▁initiate	-11.7265
▁definitive	-11.7265
▁tragic	-11.7265
▁visual	-11.7265
agliar	-11.7265
▁summon	-11.7266
▁therapist	-11.7266
▁emmanuel	-11.7266
▁brigade	-11.7266
▁feminin	-11.7266
ratchet	-11.7266
▁ridicul	-11.7266
▁grievance	-11.7266
ziz	-11.7266
▁rooftop	-11.7266
▁plume	-11.7266
▁dense	-11.7266
▁bolster	-11.7266
▁hurl	-11.7266
▁veterinarian	-11.7266
▁delaware	-11.7266
▁ankle	-11.7267
terra	-11.7267
▁cobbl	-11.7267
▁fantastic	-11.7267
▁harass	-11.7267
▁distress	-11.7267
▁introduction	-11.7267
▁arrow	-11.7267
▁scour	-11.7267
▁faint	-11.7267
▁valentin	-11.7267
▁characteristic	-11.7268
▁brake	-11.7268
▁classmate	-11.7268
▁revoke	-11.7268
▁blackmail	-11.7268
▁mubar	-11.7268
iquit	-11.7268
▁renovat	-11.7269
▁margar	-11.7269
▁nickel	-11.7269
▁rampage	-11.7271
▁prade	-11.7271
▁hydra	-11.7271
▁unchang	-11.7271
▁enroll	-11.7271
▁signature	-11.7271
▁jaip	-11.7271
▁cruel	-11.7272
▁discard	-11.7272
▁sylv	-11.7272
▁showcase	-11.7272
▁yell	-11.7272
▁titan	-11.7273
▁eisen	-11.7273
▁candid	-11.7274
▁click	-11.7274
▁ukrainian	-11.7275
▁swelling	-11.7275
▁retract	-11.7275
▁accurate	-11.7276
▁credib	-11.7276
▁drunken	-11.7276
▁slapp	-11.7276
▁consultation	-11.7276
▁circuit	-11.7277
▁yoshi	-11.7277
▁stair	-11.7277
▁compil	-11.7277
▁downplay	-11.7279
▁stray	-11.7279
▁invention	-11.7279
▁formula	-11.7279
▁pink	-11.728
ercz	-11.728
▁dili	-11.728
▁dupr	-11.7281
▁claus	-11.7282
▁distributor	-11.7282
▁dynamic	-11.7282
▁jamm	-11.7283
▁logg	-11.7284
▁snack	-11.7284
▁delight	-11.7285
▁barrage	-11.7285
▁brave	-11.7285
▁brew	-11.7286
▁reluctant	-11.7286
▁intel	-11.7287
▁bore	-11.7288
▁captor	-11.7291
▁jobless	-11.7291
▁nabi	-11.7291
▁casp	-11.7292
▁emergenc	-11.7297
▁nile	-11.7297
▁recit	-11.7297
▁biograph	-11.7298
▁overlook	-11.73
▁collector	-11.7303
▁ridge	-11.7304
▁stranger	-11.7307
▁efficient	-11.7307
▁mechanical	-11.7308
grea	-11.7308
cule	-11.731
▁deng	-11.7314
▁lawless	-11.7314
▁minne	-11.7315
▁charl	-11.7316
▁plantation	-11.7319
▁tile	-11.7319
▁underline	-11.7322
inburg	-11.7323
▁hanu	-11.7329
▁cheese	-11.733
▁sulf	-11.733
▁manual	-11.7332
▁grain	-11.7332
▁algerian	-11.7334
▁denn	-11.7335
▁brewer	-11.7336
▁brace	-11.7339
▁freezer	-11.7344
▁amend	-11.7347
isch	-11.7348
▁aspir	-11.7352
▁intrigu	-11.7352
kou	-11.7358
▁toppl	-11.736
▁lance	-11.736
▁processor	-11.7363
▁vanish	-11.7368
▁reck	-11.7374
▁confusi	-11.7374
▁examiner	-11.7377
▁raw	-11.7379
▁objection	-11.7384
mistress	-11.7384
elite	-11.7385
▁fier	-11.7387
▁shooter	-11.7396
▁cam	-11.7397
otto	-11.7398
enstein	-11.7401
▁edit	-11.7406
▁condon	-11.742
▁deco	-11.742
▁certif	-11.7425
▁appa	-11.744
incin	-11.7445
▁accessor	-11.7455
▁xp	-11.7477
▁antho	-11.7481
▁nett	-11.7498
rom	-11.7503
▁philipp	-11.7505
▁subsidiar	-11.7514
▁cardi	-11.7522
▁hayd	-11.7524
aiko	-11.7537
▁lava	-11.7552
▁prem	-11.7554
▁rust	-11.7558
medic	-11.7558
▁deriv	-11.7563
▁tyl	-11.7575
amiya	-11.7578
▁corpora	-11.7584
estimat	-11.7588
▁mao	-11.76
vara	-11.7648
rose	-11.7651
▁abid	-11.7652
▁optimis	-11.7657
▁slim	-11.7659
pik	-11.7699
dec	-11.7723
▁whiske	-11.7726
avo	-11.7765
▁retriev	-11.7768
tikh	-11.7783
▁ivanov	-11.7787
kate	-11.7788
arra	-11.7789
▁patt	-11.7803
▁acro	-11.7806
united	-11.7828
▁karl	-11.7863
▁reserv	-11.7912
▁bil	-11.7919
▁etc	-11.7958
▁gem	-11.7959
▁gru	-11.796
▁swap	-11.7991
▁darl	-11.7995
▁petro	-11.8
▁cort	-11.8004
▁zem	-11.8016
cheng	-11.8033
▁acquir	-11.8038
▁performer	-11.8056
▁explore	-11.8059
hall	-11.8062
omb	-11.8066
▁tag	-11.8066
graphic	-11.8075
▁dip	-11.8088
gne	-11.8145
nique	-11.8155
chang	-11.8157
nutrition	-11.8171
fried	-11.8184
nnett	-11.819
▁gali	-11.8219
▁suf	-11.8237
urg	-11.824
▁volunteer	-11.8245
▁audi	-11.8255
doo	-11.8265
▁skie	-11.827
▁sensitivit	-11.8292
khan	-11.8292
▁lac	-11.8307
▁retaliati	-11.8352
▁corpse	-11.8366
▁chatt	-11.8394
▁quant	-11.841
▁captiv	-11.8438
rdin	-11.8446
▁poli	-11.8455
gree	-11.8471
▁defi	-11.8475
▁identifi	-11.8477
errez	-11.8488
niz	-11.8491
▁vill	-11.8493
▁bayer	-11.8502
habi	-11.8533
▁robbe	-11.8545
tact	-11.8548
▁firefight	-11.856
bou	-11.8562
▁nico	-11.8575
ext	-11.8583
mbek	-11.8586
▁skip	-11.8596
▁regrett	-11.8607
▁uncle	-11.8607
▁exception	-11.8614
▁blu	-11.8614
▁pray	-11.8634
▁casual	-11.8639
public	-11.8639
heddin	-11.8639
parent	-11.8644
continent	-11.8645
gibbon	-11.8645
fernand	-11.8645
connect	-11.8646
taiwan	-11.8646
wealth	-11.8646
critic	-11.8646
affected	-11.8646
heavy	-11.8646
earby	-11.8646
officers	-11.8646
palestinian	-11.8646
colombia	-11.8646
somali	-11.8646
australia	-11.8646
tuesday	-11.8646
first	-11.8646
guide	-11.8646
health	-11.8647
daughter	-11.8647
normal	-11.8648
course	-11.8648
foot	-11.8649
bridge	-11.8649
sleep	-11.8651
storm	-11.8651
carac	-11.8654
believ	-11.8656
choles	-11.866
tension	-11.866
▁efficien	-11.8665
▁advoca	-11.8665
▁ethiopia	-11.8666
▁significan	-11.8667
coast	-11.8667
final	-11.8669
▁patien	-11.867
bright	-11.8672
found	-11.8679
cake	-11.868
▁burk	-11.8681
▁interrupt	-11.8682
▁assert	-11.8686
▁bloc	-11.8689
▁legitima	-11.8689
liberate	-11.8691
next	-11.8692
distinguish	-11.8694
▁abdomen	-11.8694
▁acclaim	-11.8694
▁administer	-11.8694
▁avalanche	-11.8694
▁cockpit	-11.8694
▁compatriot	-11.8694
▁contingent	-11.8694
▁eagle	-11.8694
▁excavat	-11.8694
▁gondola	-11.8694
▁heavyweight	-11.8694
▁humpback	-11.8694
▁incorporat	-11.8694
▁inflammat	-11.8694
▁lecture	-11.8694
▁marlboro	-11.8694
▁miracle	-11.8694
▁municipal	-11.8694
▁mushroom	-11.8694
▁nicaragua	-11.8694
▁parallel	-11.8694
▁pharmaceutical	-11.8694
▁plummet	-11.8694
▁prefect	-11.8694
▁renounc	-11.8694
▁sanctuar	-11.8694
▁script	-11.8694
▁scrutin	-11.8694
▁snapshot	-11.8694
▁stomach	-11.8694
▁adolescen	-11.8694
▁cochran	-11.8694
▁fragment	-11.8694
▁hurdle	-11.8694
▁illustrat	-11.8694
▁intellectual	-11.8694
▁leisure	-11.8694
▁pedestrian	-11.8694
▁provocative	-11.8694
▁reconsider	-11.8694
▁submarine	-11.8694
▁pistol	-11.8694
▁python	-11.8694
▁transmitte	-11.8694
▁curator	-11.8694
▁overflow	-11.8694
▁reptile	-11.8694
▁greg	-11.8694
▁heaven	-11.8694
▁pablo	-11.8694
▁integrati	-11.8694
▁octopus	-11.8694
▁probation	-11.8694
▁tamper	-11.8694
▁clamp	-11.8694
▁orchard	-11.8694
▁resurgen	-11.8694
▁crawf	-11.8694
▁notorious	-11.8694
▁leonard	-11.8694
▁stump	-11.8694
▁breez	-11.8694
▁lavish	-11.8694
▁paramilitar	-11.8694
▁abundan	-11.8694
▁equat	-11.8694
▁compensati	-11.8694
▁ditch	-11.8694
magnetic	-11.8694
▁ricard	-11.8694
▁siberia	-11.8694
▁blend	-11.8694
▁bulk	-11.8694
▁unearth	-11.8694
▁infringe	-11.8694
▁gigabyte	-11.8694
▁particle	-11.8694
▁desktop	-11.8694
▁phrase	-11.8694
▁appall	-11.8694
▁cardinal	-11.8694
▁shrunk	-11.8694
▁gentle	-11.8694
venir	-11.8694
▁confederat	-11.8694
▁buoy	-11.8694
▁bruis	-11.8694
▁multinational	-11.8694
▁slaying	-11.8694
▁jogg	-11.8694
▁itinerar	-11.8694
▁scratch	-11.8695
▁seminar	-11.8695
▁premium	-11.8695
▁paddle	-11.8695
▁sindh	-11.8695
▁automaker	-11.8695
▁hamburg	-11.8695
▁chuck	-11.8695
▁weird	-11.8695
▁minimiz	-11.8695
▁safeguard	-11.8695
▁affirm	-11.8695
▁eduard	-11.8696
▁sundar	-11.8696
▁conven	-11.8696
▁creek	-11.8696
▁gym	-11.8696
▁secular	-11.8696
▁comparison	-11.8696
▁celesti	-11.8696
▁gown	-11.8697
▁idris	-11.8697
▁extract	-11.8697
▁cram	-11.8697
▁blunt	-11.8697
▁patent	-11.8697
▁skydiv	-11.8697
irming	-11.8697
▁standstill	-11.8698
▁deportation	-11.8698
ussain	-11.8698
▁krist	-11.8699
▁sunlight	-11.8699
▁seizure	-11.8699
▁conrad	-11.87
▁quell	-11.87
▁unfold	-11.87
nction	-11.87
onnais	-11.87
▁dependent	-11.87
▁latitude	-11.87
brant	-11.87
▁malign	-11.87
lihood	-11.8701
▁exert	-11.8701
▁decepti	-11.8702
rawl	-11.8702
▁groom	-11.8702
▁balk	-11.8702
▁regiment	-11.8702
▁innovation	-11.8702
▁tasting	-11.8702
▁jacket	-11.8703
▁assignment	-11.8703
▁mercur	-11.8704
▁embrac	-11.8704
▁organism	-11.8704
▁migration	-11.8705
▁balkan	-11.8705
▁gripp	-11.8705
▁dorm	-11.8706
omaha	-11.8707
▁slice	-11.8708
▁abdel	-11.8708
▁prohibition	-11.8709
▁flavor	-11.8709
▁ghost	-11.8709
▁assess	-11.8709
suzu	-11.871
▁uncla	-11.8711
▁strapp	-11.8711
▁slave	-11.8712
etcher	-11.8712
rkele	-11.8713
▁billboard	-11.8713
nori	-11.8716
▁woodland	-11.8717
crates	-11.8718
▁linger	-11.8718
▁historian	-11.8718
▁matchup	-11.8718
bahn	-11.8719
▁herald	-11.8719
▁spillway	-11.872
▁feline	-11.8721
▁dogged	-11.8721
▁rotat	-11.8722
▁vari	-11.8724
▁rover	-11.8724
▁entit	-11.8725
▁defiant	-11.8725
▁flagg	-11.8725
▁vulnerabilit	-11.8725
▁sniper	-11.8726
▁gamble	-11.8726
▁vary	-11.8726
▁nye	-11.8726
▁machi	-11.8732
▁guse	-11.8734
diff	-11.8734
▁ameli	-11.8735
austin	-11.8738
▁starv	-11.8738
▁exclude	-11.8739
▁preferr	-11.874
▁cabin	-11.8741
▁defian	-11.8744
▁kennel	-11.8748
▁permitt	-11.8748
sourc	-11.8749
▁cellar	-11.8751
▁activate	-11.8752
▁equalise	-11.8752
ffel	-11.8753
▁qualifier	-11.8753
▁marco	-11.8756
▁exchang	-11.8759
▁wang	-11.8763
▁dignitar	-11.877
gm	-11.8771
▁congregat	-11.8772
▁laude	-11.8773
▁parre	-11.8773
▁vik	-11.8778
▁soap	-11.8782
▁conductor	-11.8784
▁dock	-11.8785
▁rupe	-11.8787
lund	-11.8788
▁batch	-11.8793
▁kik	-11.8794
▁neuro	-11.8796
▁frig	-11.8797
tamina	-11.8798
▁cristi	-11.8799
▁niec	-11.8799
▁oxf	-11.8801
amara	-11.8806
▁kup	-11.8812
▁chok	-11.8821
▁bons	-11.8826
▁mosle	-11.8832
▁exceptional	-11.8836
zvo	-11.8843
▁tram	-11.8844
▁thru	-11.8857
muhamm	-11.8857
▁lane	-11.8857
actor	-11.8862
▁unha	-11.8874
olation	-11.8889
▁activ	-11.889
urk	-11.889
amount	-11.8893
▁bribe	-11.8924
▁architectur	-11.8926
▁jenn	-11.8932
▁justifi	-11.8937
▁mute	-11.894
▁ashle	-11.8952
▁drum	-11.8969
▁resembl	-11.8972
▁bolsh	-11.8981
▁zub	-11.8991
▁petroc	-11.8995
▁poet	-11.9001
▁flatte	-11.9006
▁archi	-11.9012
▁fend	-11.9023
▁pub	-11.9034
▁urin	-11.9077
drop	-11.9089
vision	-11.9102
uction	-11.9103
conception	-11.9106
hang	-11.9109
▁intentional	-11.9112
▁rip	-11.9128
▁pizz	-11.9143
▁replica	-11.9163
▁audit	-11.9164
olic	-11.9172
rift	-11.9176
loom	-11.9192
▁terroriz	-11.9206
▁exclusi	-11.9216
▁vigil	-11.9228
mmers	-11.9277
culin	-11.9287
▁explor	-11.9293
reb	-11.9385
cott	-11.9403
▁sali	-11.9423
▁offend	-11.9434
▁gho	-11.9474
▁brow	-11.9487
fold	-11.9499
▁civi	-11.9523
▁haniy	-11.9544
kill	-11.9549
here	-11.9576
▁winston	-11.9586
▁contradict	-11.9596
ozo	-11.9635
cular	-11.9672
▁stimul	-11.9674
▁compress	-11.9692
▁xia	-11.9761
spirator	-11.9762
▁vigilan	-11.9765
▁spect	-11.9786
timate	-11.9826
tabas	-11.9843
▁carli	-11.9848
▁caffe	-11.9848
▁stab	-11.9853
▁shaf	-11.9992
petra	-11.9995
▁occup	-12.0004
▁stabiliz	-12.0015
▁cycl	-12.0077
▁drumm	-12.0091
▁geolog	-12.0104
sibility	-12.0112
▁trickl	-12.0126
▁gian	-12.013
harmonic	-12.0172
▁milita	-12.0178
qb	-12.0184
election	-12.0191
pilla	-12.0208
illionaire	-12.0214
▁commut	-12.0254
ferr	-12.0258
samm	-12.0264
ublin	-12.0268
anxi	-12.0276
members	-12.0293
resident	-12.03
ridge	-12.0307
negro	-12.031
bangkok	-12.0312
bangladesh	-12.0312
flower	-12.0312
unfortunate	-12.0312
indonesia	-12.0312
singapore	-12.0312
expert	-12.0313
hawk	-12.0313
.	-12.0313
korean	-12.0313
which	-12.0313
camp	-12.0313
major	-12.0313
support	-12.0313
saudi	-12.0313
turkey	-12.0313
number	-12.0314
system	-12.0314
▁enforc	-12.0315
troop	-12.0316
democratic	-12.0317
shift	-12.0319
▁chamb	-12.032
clashe	-12.0321
technology	-12.0329
martin	-12.033
chair	-12.033
everyone	-12.0332
league	-12.0332
▁reluctan	-12.0332
feder	-12.0333
bill	-12.0337
kaya	-12.034
shot	-12.0341
feld	-12.0343
flight	-12.0345
brew	-12.0347
▁migrat	-12.0348
spring	-12.0353
fortunate	-12.0354
gold	-12.0356
▁disagree	-12.0356
▁chun	-12.0357
▁horri	-12.0359
▁veterinar	-12.0359
▁palestin	-12.036
▁persecut	-12.036
▁fluctuat	-12.036
▁recharge	-12.036
anthropolog	-12.036
greyhound	-12.036
▁alejandr	-12.036
▁anxiet	-12.036
▁artifact	-12.036
▁avocado	-12.036
▁bikini	-12.036
▁chechnya	-12.036
▁clergy	-12.036
▁convincing	-12.036
▁corridor	-12.036
▁default	-12.036
▁deflect	-12.036
▁description	-12.036
▁disadvantage	-12.036
▁discharge	-12.036
▁discourage	-12.036
▁embargo	-12.036
▁evaluation	-12.036
▁excerpt	-12.036
▁explicit	-12.036
▁eyebrow	-12.036
▁gadget	-12.036
▁gharial	-12.036
▁glitz	-12.036
▁homosexual	-12.036
▁imagination	-12.036
▁integrity	-12.036
▁lombard	-12.036
▁loophole	-12.036
▁obscure	-12.036
▁paleontologist	-12.036
▁peanut	-12.036
▁philosoph	-12.036
▁prototype	-12.036
▁refrain	-12.036
▁rethink	-12.036
▁revelation	-12.036
▁satisfy	-12.036
▁slovakia	-12.036
▁spacewalk	-12.036
▁audiotape	-12.036
▁chopper	-12.036
▁defamat	-12.036
▁disband	-12.036
▁evaluate	-12.036
▁extravagan	-12.036
▁hectare	-12.036
▁identical	-12.036
▁lifestyle	-12.036
▁lithuania	-12.036
▁overshadow	-12.036
▁powder	-12.036
▁prevail	-12.036
▁skyrocket	-12.036
▁uninhabit	-12.036
▁censor	-12.036
▁flourish	-12.036
▁intoxicat	-12.036
▁meadow	-12.036
▁sabotag	-12.036
▁spiral	-12.036
▁divulg	-12.036
▁elysee	-12.036
▁mismanage	-12.036
▁pearl	-12.036
▁swirl	-12.036
▁traitor	-12.036
▁downpour	-12.036
▁sapien	-12.036
▁nausea	-12.0361
▁wilkins	-12.0361
▁detach	-12.0361
▁kraus	-12.0361
▁senegal	-12.0361
▁bypass	-12.0361
▁mujah	-12.0361
▁thumb	-12.0361
▁coffin	-12.0361
▁bulb	-12.0361
▁salute	-12.0361
▁distort	-12.0361
▁depot	-12.0361
▁helmet	-12.0361
▁racket	-12.0361
▁firearm	-12.0361
▁congest	-12.0361
▁siege	-12.0361
▁slugg	-12.0361
▁lapse	-12.0361
reconcil	-12.0361
▁geographic	-12.0361
▁ardent	-12.0361
▁pretend	-12.0361
▁fetus	-12.0361
▁quinn	-12.0361
▁atrocit	-12.0361
▁antiquit	-12.0361
▁dweller	-12.0361
▁eldor	-12.0361
▁depressed	-12.0361
▁pinpoint	-12.0361
▁latif	-12.0361
▁nutritional	-12.0361
▁degrad	-12.0361
▁abolish	-12.0361
▁bureaucrat	-12.0361
▁dissent	-12.0361
▁equit	-12.0361
▁spouse	-12.0362
▁malawi	-12.0362
▁tusk	-12.0362
▁worshipper	-12.0362
▁minibus	-12.0362
▁unhapp	-12.0362
▁glamor	-12.0362
▁telecom	-12.0362
hcr	-12.0362
▁habitual	-12.0362
▁gorge	-12.0362
▁automobile	-12.0362
▁astonish	-12.0362
▁grocer	-12.0362
▁stint	-12.0362
▁mixture	-12.0363
▁lenno	-12.0363
▁crisscross	-12.0363
▁koala	-12.0363
▁carniv	-12.0363
▁funnel	-12.0363
▁flock	-12.0363
▁attire	-12.0364
▁advertisement	-12.0364
▁hinder	-12.0364
ndition	-12.0364
▁guti	-12.0364
▁hopkin	-12.0364
▁justify	-12.0364
▁disturbance	-12.0364
▁orphanage	-12.0365
▁exploration	-12.0365
▁quail	-12.0365
▁mcclinto	-12.0365
▁gangster	-12.0365
▁blockade	-12.0365
jack	-12.0366
▁zhi	-12.0366
▁patch	-12.0366
dentist	-12.0366
▁shrive	-12.0367
▁nuts	-12.0367
▁pleasant	-12.0367
▁infantry	-12.0368
▁airlift	-12.0368
▁lobbyist	-12.0369
▁sixteen	-12.0369
rgency	-12.0369
▁verbal	-12.0369
▁accomplishment	-12.037
▁idol	-12.037
▁floodwater	-12.037
▁racist	-12.037
▁lieber	-12.0371
uyu	-12.0371
▁akh	-12.0371
▁garner	-12.0371
▁incur	-12.0372
▁jedi	-12.0373
▁tolerate	-12.0374
▁instructor	-12.0374
elipe	-12.0374
▁hobb	-12.0374
▁evans	-12.0376
▁pierc	-12.0376
▁botani	-12.0376
▁jali	-12.0377
▁quest	-12.0377
▁hoop	-12.0377
▁interruption	-12.0377
▁fiber	-12.0377
▁caval	-12.0378
▁addiction	-12.0379
▁ripple	-12.038
▁smithson	-12.038
▁legalize	-12.0381
▁saucer	-12.0382
▁hank	-12.0382
▁gramma	-12.0383
▁centimet	-12.0384
▁lump	-12.0384
▁conceiv	-12.0384
▁mountainside	-12.0385
▁purse	-12.0385
▁counselor	-12.0388
▁stow	-12.0388
▁constituenc	-12.0389
▁luke	-12.0393
▁indecen	-12.0396
▁glea	-12.0397
▁misus	-12.0398
▁bagg	-12.0399
▁cache	-12.0399
▁sideline	-12.0399
▁launder	-12.0399
▁interrogat	-12.0401
▁wench	-12.0402
▁hartl	-12.0402
arbour	-12.0406
▁luz	-12.0407
▁stoke	-12.0408
satisfactor	-12.041
assie	-12.0412
mitz	-12.0418
▁levan	-12.0419
partisan	-12.0419
plex	-12.042
▁hallway	-12.042
▁detector	-12.042
andem	-12.0421
▁zaina	-12.0422
guy	-12.0426
▁bamb	-12.0428
▁askari	-12.0433
saur	-12.0439
▁klo	-12.0439
▁gigg	-12.0453
▁calv	-12.0461
gv	-12.0462
grow	-12.0477
egu	-12.0482
fug	-12.0493
▁indicator	-12.0494
▁charm	-12.0509
▁unfi	-12.0513
lope	-12.0523
descent	-12.0534
▁oppress	-12.0589
▁balco	-12.0599
▁correction	-12.0612
▁decode	-12.0613
iffe	-12.0616
▁patter	-12.0638
ethy	-12.0641
▁lagg	-12.0644
closure	-12.0649
▁consol	-12.0653
▁syndicat	-12.0664
▁originate	-12.0683
▁multimillion	-12.074
stile	-12.0755
▁grani	-12.076
▁gonn	-12.0764
▁menac	-12.077
getting	-12.0773
canad	-12.0775
spector	-12.0803
nasa	-12.0813
▁devi	-12.0821
atero	-12.0885
▁moussa	-12.0942
ncred	-12.0946
▁leve	-12.0949
inocula	-12.1028
rdr	-12.1029
▁restructur	-12.1054
▁undertak	-12.1085
metric	-12.1097
vasi	-12.1101
▁renam	-12.1106
magh	-12.111
▁birdie	-12.111
grove	-12.1114
probabl	-12.112
▁egg	-12.1126
▁curv	-12.1131
▁hwa	-12.1149
▁preservati	-12.1231
▁deposit	-12.1239
roso	-12.1254
▁cabb	-12.1281
▁fond	-12.1312
gura	-12.1377
pulse	-12.1392
ahab	-12.1407
politan	-12.1457
▁riv	-12.1481
▁intimidati	-12.1521
dmit	-12.1592
▁ferrie	-12.1627
clusion	-12.1642
▁finaliz	-12.1708
▁mink	-12.1778
▁qata	-12.1874
▁antibiotic	-12.191
▁creativ	-12.1927
▁tenzin	-12.1934
rita	-12.1968
adio	-12.2112
guo	-12.2117
▁shatter	-12.2131
environmentalist	-12.2152
view	-12.2177
▁dismantl	-12.2227
▁messag	-12.2227
witch	-12.2254
▁communicat	-12.2265
▁nativ	-12.2266
pusa	-12.2284
satisfact	-12.23
▁dispers	-12.2302
▁absolute	-12.2303
▁mechanic	-12.2307
disclos	-12.231
friend	-12.231
adequate	-12.231
caffein	-12.2311
retail	-12.2312
pichushkin	-12.2312
motive	-12.2312
kuwait	-12.2312
comfortabl	-12.2312
barcelon	-12.2312
philip	-12.2312
giuli	-12.2312
provid	-12.2312
blaze	-12.2312
eventual	-12.2312
engineer	-12.2312
effective	-12.2312
hussein	-12.2312
activit	-12.2312
survivor	-12.2312
▁physic	-12.2312
george	-12.2313
conduct	-12.2313
visitor	-12.2313
discover	-12.2313
florida	-12.2313
flood	-12.2313
committee	-12.2313
companies	-12.2313
measure	-12.2313
international	-12.2313
friday	-12.2313
senator	-12.2313
typical	-12.2313
consumer	-12.2313
welcome	-12.2313
animal	-12.2314
react	-12.2314
heart	-12.2314
soldier	-12.2315
cliff	-12.2315
▁emphasi	-12.2315
avoid	-12.2315
sunday	-12.2315
ggle	-12.2316
jackson	-12.2316
serbia	-12.2317
market	-12.2318
export	-12.2318
kenne	-12.2322
▁fata	-12.2322
food	-12.2324
rival	-12.2325
check	-12.2325
▁secre	-12.2326
▁transparen	-12.2332
▁strategi	-12.2335
patric	-12.2335
pitt	-12.2336
▁sauce	-12.2336
▁implicat	-12.2337
▁biotech	-12.234
▁perpetrat	-12.2344
▁sheik	-12.2357
▁arsen	-12.2358
▁oblig	-12.2358
eject	-12.2359
▁reinforc	-12.236
▁destin	-12.236
▁adjourn	-12.236
▁decapitat	-12.236
▁succumb	-12.236
▁annihilat	-12.236
▁dharams	-12.236
▁disqualifi	-12.236
▁exacerbat	-12.236
▁exaggerat	-12.236
▁illuminat	-12.236
▁malfunction	-12.236
▁reclaim	-12.236
▁resurrect	-12.236
disproportionate	-12.236
▁accommodation	-12.236
▁accomplice	-12.236
▁anglican	-12.236
▁cocktail	-12.236
▁conciliat	-12.236
▁consulate	-12.236
▁cosmetic	-12.236
▁culminat	-12.236
▁culprit	-12.236
▁culver	-12.236
▁cylinder	-12.236
▁demographic	-12.236
▁dilemma	-12.236
▁disregard	-12.236
▁dungeon	-12.236
▁eclips	-12.236
▁encephal	-12.236
▁etiquette	-12.236
▁exemption	-12.236
▁extinguish	-12.236
▁hierarch	-12.236
▁hotspot	-12.236
▁inconvenien	-12.236
▁inexperience	-12.236
▁jockey	-12.236
▁maverick	-12.236
▁mothball	-12.236
▁neglect	-12.236
▁orthopedic	-12.236
▁pamphlet	-12.236
▁perception	-12.236
▁polygam	-12.236
▁precondition	-12.236
▁puzzl	-12.236
▁quarantine	-12.236
▁railroad	-12.236
▁registration	-12.236
▁relinquish	-12.236
▁reminisce	-12.236
▁resilien	-12.236
▁sabhnani	-12.236
▁salvador	-12.236
▁salvage	-12.236
▁scrub	-12.236
▁secession	-12.236
▁skeleton	-12.236
▁skyscraper	-12.236
▁soybean	-12.236
▁subscriber	-12.236
▁subtitle	-12.236
▁blazing	-12.236
▁ecsta	-12.236
▁glitch	-12.236
▁lenient	-12.236
▁munchkin	-12.236
▁ordinance	-12.236
▁physiolog	-12.236
▁samuel	-12.236
▁scully	-12.236
▁souvenir	-12.236
▁vendor	-12.236
osexual	-12.236
▁brazen	-12.236
▁cheetah	-12.236
▁complement	-12.236
▁conquest	-12.236
▁contagio	-12.236
▁delicate	-12.236
▁immense	-12.236
▁kampu	-12.236
▁leicester	-12.236
▁pupil	-12.236
▁snatch	-12.236
▁edmund	-12.236
▁barricade	-12.236
▁butterfl	-12.236
▁peatland	-12.236
▁churn	-12.236
▁regenerat	-12.236
▁vibrat	-12.2361
▁lawrence	-12.2361
▁obsess	-12.2361
▁parcel	-12.2361
▁cradl	-12.2361
▁crescent	-12.2361
▁sororit	-12.2361
▁staunch	-12.2361
▁trauma	-12.2361
▁vcr	-12.2361
▁mound	-12.2361
▁wrestl	-12.2361
▁mongol	-12.2361
▁irving	-12.2361
▁vivid	-12.2361
▁bioengineer	-12.2361
mptu	-12.2361
▁reassur	-12.2361
▁enlist	-12.2361
▁bookstore	-12.2361
▁estrange	-12.2361
▁warrior	-12.2361
▁sultan	-12.2361
▁backpack	-12.2361
▁adorn	-12.2361
▁erotic	-12.2361
▁reinforcement	-12.2361
▁blank	-12.2361
▁specify	-12.2361
▁fringe	-12.2361
arcelor	-12.2361
▁epit	-12.2361
▁donkey	-12.2361
▁smear	-12.2361
▁commend	-12.2361
▁whisper	-12.2361
▁classify	-12.2361
▁chrys	-12.2361
▁pluck	-12.2361
▁connor	-12.2361
tacean	-12.2361
▁embark	-12.2361
▁empower	-12.2361
▁ferment	-12.2361
▁mcdon	-12.2361
▁straw	-12.2362
▁wrist	-12.2362
▁smog	-12.2362
▁snowstorm	-12.2362
▁irrigat	-12.2362
▁corral	-12.2362
▁forehand	-12.2362
▁spew	-12.2362
▁newcomer	-12.2362
▁molecul	-12.2362
▁blake	-12.2362
▁convenien	-12.2362
▁patron	-12.2362
▁marvel	-12.2362
▁pharmacist	-12.2362
▁snag	-12.2362
▁sleeve	-12.2362
▁plaster	-12.2362
▁nonviolen	-12.2362
ollec	-12.2363
▁astound	-12.2363
▁cosmo	-12.2363
▁dismay	-12.2363
▁pumpkin	-12.2363
▁parasit	-12.2363
▁copyright	-12.2363
▁backyard	-12.2363
▁haircut	-12.2363
▁braun	-12.2363
▁allergi	-12.2364
▁pileup	-12.2364
▁passionate	-12.2364
▁envision	-12.2364
▁falter	-12.2364
▁abram	-12.2364
▁curious	-12.2364
▁seismic	-12.2364
▁rational	-12.2364
▁verify	-12.2364
▁vague	-12.2365
▁gyan	-12.2365
▁browser	-12.2365
▁headscar	-12.2365
▁unnerv	-12.2365
▁filip	-12.2366
▁tripoli	-12.2366
▁unify	-12.2366
▁distill	-12.2366
▁variation	-12.2366
▁brokerage	-12.2366
possi	-12.2366
▁reservation	-12.2366
fleck	-12.2366
▁grape	-12.2367
▁indigen	-12.2367
▁roast	-12.2367
▁corru	-12.2367
▁chunk	-12.2368
▁betray	-12.2368
▁thrash	-12.2368
▁relegat	-12.2369
▁void	-12.2369
▁mountaineer	-12.2369
▁huang	-12.2369
▁lazi	-12.2369
▁resent	-12.2369
▁throng	-12.237
▁zahi	-12.237
▁pinch	-12.237
▁flush	-12.237
▁seafar	-12.237
▁glove	-12.237
▁neural	-12.237
▁chiap	-12.2371
▁shann	-12.2372
▁isabell	-12.2372
▁fool	-12.2373
▁vacan	-12.2373
▁leaf	-12.2374
▁litter	-12.2374
▁peek	-12.2374
▁chung	-12.2375
▁beneficia	-12.2376
gabyte	-12.2377
▁perpetrator	-12.2377
▁shutter	-12.2378
▁complicit	-12.2378
